{
  "version": "1.0",
  "truncation": null,
  "padding": null,
  "added_tokens": [
    {
      "id": 0,
      "content": "<s>",
      "single_word": false,
      "lstrip": false,
      "rstrip": false,
      "normalized": false,
      "special": true
    },
    {
      "id": 1,
      "content": "</s>",
      "single_word": false,
      "lstrip": false,
      "rstrip": false,
      "normalized": false,
      "special": true
    },
    {
      "id": 2,
      "content": "<pad>",
      "single_word": false,
      "lstrip": false,
      "rstrip": false,
      "normalized": false,
      "special": true
    },
    {
      "id": 3,
      "content": "<unk>",
      "single_word": false,
      "lstrip": false,
      "rstrip": false,
      "normalized": false,
      "special": true
    }
  ],
  "normalizer": null,
  "pre_tokenizer": {
    "type": "Whitespace"
  },
  "post_processor": {
    "type": "TemplateProcessing",
    "single": [
      {
        "SpecialToken": {
          "id": "<s>",
          "type_id": 0
        }
      },
      {
        "Sequence": {
          "id": "A",
          "type_id": 0
        }
      },
      {
        "SpecialToken": {
          "id": "</s>",
          "type_id": 0
        }
      }
    ],
    "pair": [
      {
        "SpecialToken": {
          "id": "<s>",
          "type_id": 0
        }
      },
      {
        "Sequence": {
          "id": "A",
          "type_id": 0
        }
      },
      {
        "SpecialToken": {
          "id": "</s>",
          "type_id": 0
        }
      },
      {
        "Sequence": {
          "id": "B",
          "type_id": 1
        }
      },
      {
        "SpecialToken": {
          "id": "</s>",
          "type_id": 1
        }
      }
    ],
    "special_tokens": {
      "</s>": {
        "id": "</s>",
        "ids": [
          1
        ],
        "tokens": [
          "</s>"
        ]
      },
      "<s>": {
        "id": "<s>",
        "ids": [
          0
        ],
        "tokens": [
          "<s>"
        ]
      }
    }
  },
  "decoder": null,
  "model": {
    "type": "BPE",
    "dropout": null,
    "unk_token": null,
    "continuing_subword_prefix": null,
    "end_of_word_suffix": null,
    "fuse_unk": false,
    "byte_fallback": false,
    "ignore_merges": false,
    "vocab": {
      "<s>": 0,
      "</s>": 1,
      "<pad>": 2,
      "<unk>": 3,
      "!": 4,
      "\"": 5,
      "$": 6,
      "%": 7,
      "&": 8,
      "'": 9,
      "(": 10,
      ")": 11,
      "*": 12,
      "+": 13,
      ",": 14,
      "-": 15,
      ".": 16,
      "/": 17,
      "0": 18,
      "1": 19,
      "2": 20,
      "3": 21,
      "4": 22,
      "5": 23,
      "6": 24,
      "7": 25,
      "8": 26,
      "9": 27,
      ":": 28,
      ";": 29,
      "=": 30,
      "?": 31,
      "A": 32,
      "B": 33,
      "C": 34,
      "D": 35,
      "E": 36,
      "F": 37,
      "G": 38,
      "H": 39,
      "I": 40,
      "J": 41,
      "K": 42,
      "L": 43,
      "M": 44,
      "N": 45,
      "O": 46,
      "P": 47,
      "Q": 48,
      "R": 49,
      "S": 50,
      "T": 51,
      "U": 52,
      "V": 53,
      "W": 54,
      "X": 55,
      "Y": 56,
      "Z": 57,
      "[": 58,
      "]": 59,
      "^": 60,
      "a": 61,
      "b": 62,
      "c": 63,
      "d": 64,
      "e": 65,
      "f": 66,
      "g": 67,
      "h": 68,
      "i": 69,
      "j": 70,
      "k": 71,
      "l": 72,
      "m": 73,
      "n": 74,
      "o": 75,
      "p": 76,
      "q": 77,
      "r": 78,
      "s": 79,
      "t": 80,
      "u": 81,
      "v": 82,
      "w": 83,
      "x": 84,
      "y": 85,
      "z": 86,
      "|": 87,
      "~": 88,
      "·": 89,
      "Ö": 90,
      "×": 91,
      "á": 92,
      "é": 93,
      "​": 94,
      "–": 95,
      "—": 96,
      "‘": 97,
      "’": 98,
      "“": 99,
      "”": 100,
      "…": 101,
      "℃": 102,
      "─": 103,
      "、": 104,
      "。": 105,
      "《": 106,
      "》": 107,
      "一": 108,
      "丁": 109,
      "七": 110,
      "万": 111,
      "丈": 112,
      "三": 113,
      "上": 114,
      "下": 115,
      "不": 116,
      "与": 117,
      "专": 118,
      "且": 119,
      "世": 120,
      "丘": 121,
      "丙": 122,
      "业": 123,
      "东": 124,
      "丝": 125,
      "丢": 126,
      "两": 127,
      "严": 128,
      "丧": 129,
      "个": 130,
      "中": 131,
      "丰": 132,
      "临": 133,
      "为": 134,
      "主": 135,
      "丽": 136,
      "举": 137,
      "乃": 138,
      "久": 139,
      "么": 140,
      "义": 141,
      "之": 142,
      "乌": 143,
      "乎": 144,
      "乏": 145,
      "乐": 146,
      "乔": 147,
      "乙": 148,
      "九": 149,
      "也": 150,
      "习": 151,
      "乡": 152,
      "书": 153,
      "买": 154,
      "乱": 155,
      "了": 156,
      "予": 157,
      "争": 158,
      "事": 159,
      "二": 160,
      "于": 161,
      "云": 162,
      "互": 163,
      "五": 164,
      "井": 165,
      "亚": 166,
      "些": 167,
      "亡": 168,
      "交": 169,
      "亦": 170,
      "产": 171,
      "享": 172,
      "京": 173,
      "亮": 174,
      "亲": 175,
      "人": 176,
      "亿": 177,
      "什": 178,
      "仅": 179,
      "今": 180,
      "介": 181,
      "仍": 182,
      "从": 183,
      "仔": 184,
      "他": 185,
      "付": 186,
      "代": 187,
      "令": 188,
      "以": 189,
      "仪": 190,
      "们": 191,
      "仰": 192,
      "件": 193,
      "价": 194,
      "任": 195,
      "份": 196,
      "仿": 197,
      "企": 198,
      "伍": 199,
      "伐": 200,
      "休": 201,
      "众": 202,
      "优": 203,
      "伙": 204,
      "会": 205,
      "伞": 206,
      "伟": 207,
      "传": 208,
      "伤": 209,
      "伦": 210,
      "伯": 211,
      "估": 212,
      "伴": 213,
      "伸": 214,
      "似": 215,
      "但": 216,
      "佈": 217,
      "位": 218,
      "低": 219,
      "住": 220,
      "体": 221,
      "何": 222,
      "余": 223,
      "佛": 224,
      "作": 225,
      "佝": 226,
      "你": 227,
      "佳": 228,
      "使": 229,
      "來": 230,
      "侈": 231,
      "例": 232,
      "供": 233,
      "依": 234,
      "侣": 235,
      "侵": 236,
      "便": 237,
      "係": 238,
      "促": 239,
      "俗": 240,
      "保": 241,
      "信": 242,
      "俨": 243,
      "俩": 244,
      "修": 245,
      "俯": 246,
      "俱": 247,
      "倍": 248,
      "倒": 249,
      "候": 250,
      "借": 251,
      "值": 252,
      "倾": 253,
      "假": 254,
      "偎": 255,
      "偏": 256,
      "做": 257,
      "停": 258,
      "健": 259,
      "偶": 260,
      "偷": 261,
      "偻": 262,
      "傍": 263,
      "储": 264,
      "催": 265,
      "傲": 266,
      "傻": 267,
      "像": 268,
      "僧": 269,
      "僵": 270,
      "僻": 271,
      "儿": 272,
      "元": 273,
      "兄": 274,
      "充": 275,
      "先": 276,
      "光": 277,
      "克": 278,
      "免": 279,
      "入": 280,
      "全": 281,
      "八": 282,
      "公": 283,
      "六": 284,
      "兮": 285,
      "兰": 286,
      "共": 287,
      "关": 288,
      "兴": 289,
      "兵": 290,
      "其": 291,
      "具": 292,
      "典": 293,
      "兹": 294,
      "养": 295,
      "兼": 296,
      "内": 297,
      "册": 298,
      "再": 299,
      "冒": 300,
      "冗": 301,
      "写": 302,
      "军": 303,
      "农": 304,
      "冥": 305,
      "冬": 306,
      "冰": 307,
      "冲": 308,
      "决": 309,
      "况": 310,
      "冷": 311,
      "冻": 312,
      "冽": 313,
      "净": 314,
      "凄": 315,
      "准": 316,
      "凉": 317,
      "凌": 318,
      "减": 319,
      "凛": 320,
      "凝": 321,
      "几": 322,
      "凡": 323,
      "凭": 324,
      "凯": 325,
      "出": 326,
      "击": 327,
      "函": 328,
      "刀": 329,
      "刃": 330,
      "分": 331,
      "切": 332,
      "刊": 333,
      "划": 334,
      "列": 335,
      "刘": 336,
      "则": 337,
      "刚": 338,
      "创": 339,
      "初": 340,
      "判": 341,
      "別": 342,
      "刨": 343,
      "利": 344,
      "别": 345,
      "到": 346,
      "制": 347,
      "刷": 348,
      "刹": 349,
      "刺": 350,
      "刻": 351,
      "前": 352,
      "剑": 353,
      "剔": 354,
      "剥": 355,
      "剧": 356,
      "剩": 357,
      "剪": 358,
      "副": 359,
      "割": 360,
      "力": 361,
      "劝": 362,
      "办": 363,
      "功": 364,
      "加": 365,
      "务": 366,
      "劣": 367,
      "动": 368,
      "助": 369,
      "努": 370,
      "励": 371,
      "劲": 372,
      "劳": 373,
      "势": 374,
      "勃": 375,
      "勇": 376,
      "勒": 377,
      "勘": 378,
      "募": 379,
      "勤": 380,
      "勾": 381,
      "包": 382,
      "匆": 383,
      "化": 384,
      "北": 385,
      "匠": 386,
      "匹": 387,
      "区": 388,
      "医": 389,
      "十": 390,
      "千": 391,
      "升": 392,
      "午": 393,
      "半": 394,
      "华": 395,
      "协": 396,
      "卑": 397,
      "单": 398,
      "卖": 399,
      "南": 400,
      "博": 401,
      "占": 402,
      "卡": 403,
      "卧": 404,
      "印": 405,
      "危": 406,
      "即": 407,
      "却": 408,
      "厂": 409,
      "厅": 410,
      "历": 411,
      "厉": 412,
      "压": 413,
      "厌": 414,
      "厕": 415,
      "厚": 416,
      "原": 417,
      "厦": 418,
      "厨": 419,
      "去": 420,
      "县": 421,
      "参": 422,
      "又": 423,
      "叉": 424,
      "及": 425,
      "友": 426,
      "双": 427,
      "反": 428,
      "发": 429,
      "取": 430,
      "受": 431,
      "变": 432,
      "口": 433,
      "古": 434,
      "句": 435,
      "另": 436,
      "只": 437,
      "叫": 438,
      "叮": 439,
      "可": 440,
      "台": 441,
      "史": 442,
      "右": 443,
      "叶": 444,
      "号": 445,
      "司": 446,
      "叹": 447,
      "吁": 448,
      "吃": 449,
      "各": 450,
      "合": 451,
      "吉": 452,
      "同": 453,
      "名": 454,
      "后": 455,
      "吐": 456,
      "向": 457,
      "吓": 458,
      "吗": 459,
      "君": 460,
      "否": 461,
      "吧": 462,
      "含": 463,
      "听": 464,
      "启": 465,
      "吵": 466,
      "吸": 467,
      "吹": 468,
      "吻": 469,
      "吼": 470,
      "呀": 471,
      "呈": 472,
      "告": 473,
      "员": 474,
      "呢": 475,
      "呦": 476,
      "周": 477,
      "呱": 478,
      "味": 479,
      "呵": 480,
      "呼": 481,
      "命": 482,
      "和": 483,
      "咏": 484,
      "咖": 485,
      "咛": 486,
      "咪": 487,
      "咱": 488,
      "咸": 489,
      "咽": 490,
      "哀": 491,
      "品": 492,
      "哄": 493,
      "哇": 494,
      "哈": 495,
      "响": 496,
      "哎": 497,
      "哗": 498,
      "哥": 499,
      "哪": 500,
      "哭": 501,
      "哲": 502,
      "唇": 503,
      "唉": 504,
      "唐": 505,
      "唤": 506,
      "售": 507,
      "唯": 508,
      "唱": 509,
      "商": 510,
      "啊": 511,
      "啡": 512,
      "啥": 513,
      "啦": 514,
      "啸": 515,
      "喂": 516,
      "善": 517,
      "喊": 518,
      "喘": 519,
      "喜": 520,
      "喝": 521,
      "喧": 522,
      "喷": 523,
      "喻": 524,
      "嗎": 525,
      "嗜": 526,
      "嘈": 527,
      "嘛": 528,
      "嘲": 529,
      "嘴": 530,
      "嘶": 531,
      "嘻": 532,
      "器": 533,
      "噪": 534,
      "嚎": 535,
      "嚣": 536,
      "四": 537,
      "回": 538,
      "因": 539,
      "团": 540,
      "园": 541,
      "困": 542,
      "囱": 543,
      "围": 544,
      "固": 545,
      "国": 546,
      "图": 547,
      "圆": 548,
      "圈": 549,
      "土": 550,
      "圣": 551,
      "在": 552,
      "地": 553,
      "场": 554,
      "圾": 555,
      "均": 556,
      "坊": 557,
      "坎": 558,
      "坏": 559,
      "坐": 560,
      "块": 561,
      "坚": 562,
      "坛": 563,
      "坦": 564,
      "坷": 565,
      "垂": 566,
      "垃": 567,
      "型": 568,
      "垒": 569,
      "埃": 570,
      "城": 571,
      "域": 572,
      "培": 573,
      "基": 574,
      "堂": 575,
      "堆": 576,
      "堕": 577,
      "堤": 578,
      "塌": 579,
      "塑": 580,
      "塔": 581,
      "塞": 582,
      "境": 583,
      "墅": 584,
      "增": 585,
      "墨": 586,
      "壤": 587,
      "士": 588,
      "壮": 589,
      "声": 590,
      "处": 591,
      "备": 592,
      "复": 593,
      "夏": 594,
      "夕": 595,
      "外": 596,
      "多": 597,
      "夜": 598,
      "够": 599,
      "大": 600,
      "天": 601,
      "太": 602,
      "夫": 603,
      "夭": 604,
      "央": 605,
      "失": 606,
      "头": 607,
      "夸": 608,
      "夹": 609,
      "奇": 610,
      "奈": 611,
      "奉": 612,
      "奋": 613,
      "奎": 614,
      "奏": 615,
      "奔": 616,
      "奖": 617,
      "套": 618,
      "奢": 619,
      "奥": 620,
      "女": 621,
      "奴": 622,
      "奶": 623,
      "她": 624,
      "好": 625,
      "如": 626,
      "妆": 627,
      "妇": 628,
      "妈": 629,
      "妒": 630,
      "妙": 631,
      "妩": 632,
      "妹": 633,
      "妻": 634,
      "姆": 635,
      "始": 636,
      "姐": 637,
      "姑": 638,
      "姓": 639,
      "委": 640,
      "姣": 641,
      "姿": 642,
      "威": 643,
      "娃": 644,
      "娇": 645,
      "娘": 646,
      "娜": 647,
      "娱": 648,
      "婆": 649,
      "婚": 650,
      "婪": 651,
      "婴": 652,
      "媒": 653,
      "媚": 654,
      "嫁": 655,
      "嫉": 656,
      "嫌": 657,
      "嬷": 658,
      "子": 659,
      "孔": 660,
      "孕": 661,
      "字": 662,
      "存": 663,
      "孙": 664,
      "孤": 665,
      "学": 666,
      "孩": 667,
      "宁": 668,
      "它": 669,
      "宅": 670,
      "宇": 671,
      "守": 672,
      "安": 673,
      "完": 674,
      "宏": 675,
      "宗": 676,
      "官": 677,
      "宙": 678,
      "定": 679,
      "宛": 680,
      "宜": 681,
      "宝": 682,
      "实": 683,
      "宠": 684,
      "客": 685,
      "宣": 686,
      "室": 687,
      "宫": 688,
      "宰": 689,
      "害": 690,
      "宴": 691,
      "家": 692,
      "容": 693,
      "宽": 694,
      "宿": 695,
      "寂": 696,
      "寄": 697,
      "密": 698,
      "富": 699,
      "寒": 700,
      "寓": 701,
      "寞": 702,
      "察": 703,
      "寡": 704,
      "寥": 705,
      "寸": 706,
      "对": 707,
      "寻": 708,
      "导": 709,
      "寿": 710,
      "封": 711,
      "射": 712,
      "将": 713,
      "尊": 714,
      "小": 715,
      "少": 716,
      "尔": 717,
      "尖": 718,
      "尘": 719,
      "尝": 720,
      "尤": 721,
      "尬": 722,
      "就": 723,
      "尴": 724,
      "尺": 725,
      "尼": 726,
      "尽": 727,
      "尾": 728,
      "尿": 729,
      "局": 730,
      "屁": 731,
      "层": 732,
      "居": 733,
      "屈": 734,
      "届": 735,
      "屋": 736,
      "屏": 737,
      "屑": 738,
      "展": 739,
      "属": 740,
      "屡": 741,
      "履": 742,
      "山": 743,
      "岁": 744,
      "岌": 745,
      "岗": 746,
      "岸": 747,
      "峰": 748,
      "峻": 749,
      "崇": 750,
      "崩": 751,
      "崭": 752,
      "嵌": 753,
      "川": 754,
      "州": 755,
      "工": 756,
      "左": 757,
      "巧": 758,
      "巨": 759,
      "差": 760,
      "己": 761,
      "已": 762,
      "巴": 763,
      "巾": 764,
      "币": 765,
      "市": 766,
      "布": 767,
      "帅": 768,
      "师": 769,
      "希": 770,
      "帐": 771,
      "帕": 772,
      "帝": 773,
      "带": 774,
      "帮": 775,
      "帷": 776,
      "常": 777,
      "帽": 778,
      "幄": 779,
      "幅": 780,
      "幕": 781,
      "幡": 782,
      "干": 783,
      "平": 784,
      "年": 785,
      "并": 786,
      "幸": 787,
      "幻": 788,
      "幼": 789,
      "幽": 790,
      "广": 791,
      "庄": 792,
      "庆": 793,
      "庇": 794,
      "床": 795,
      "序": 796,
      "应": 797,
      "底": 798,
      "府": 799,
      "庞": 800,
      "度": 801,
      "座": 802,
      "庭": 803,
      "康": 804,
      "廉": 805,
      "廊": 806,
      "廓": 807,
      "延": 808,
      "廷": 809,
      "建": 810,
      "开": 811,
      "异": 812,
      "弃": 813,
      "弄": 814,
      "式": 815,
      "弓": 816,
      "引": 817,
      "弗": 818,
      "弘": 819,
      "弛": 820,
      "弟": 821,
      "张": 822,
      "弯": 823,
      "弱": 824,
      "張": 825,
      "弹": 826,
      "强": 827,
      "归": 828,
      "当": 829,
      "录": 830,
      "形": 831,
      "彩": 832,
      "影": 833,
      "役": 834,
      "彻": 835,
      "彼": 836,
      "往": 837,
      "征": 838,
      "径": 839,
      "待": 840,
      "很": 841,
      "律": 842,
      "徒": 843,
      "得": 844,
      "從": 845,
      "御": 846,
      "微": 847,
      "德": 848,
      "心": 849,
      "必": 850,
      "忆": 851,
      "忍": 852,
      "志": 853,
      "忘": 854,
      "忙": 855,
      "忡": 856,
      "忧": 857,
      "快": 858,
      "念": 859,
      "忽": 860,
      "怀": 861,
      "态": 862,
      "怎": 863,
      "怏": 864,
      "怒": 865,
      "怕": 866,
      "思": 867,
      "急": 868,
      "性": 869,
      "怨": 870,
      "怪": 871,
      "总": 872,
      "恋": 873,
      "恐": 874,
      "恒": 875,
      "恢": 876,
      "恨": 877,
      "恩": 878,
      "息": 879,
      "恶": 880,
      "悄": 881,
      "悉": 882,
      "悍": 883,
      "悟": 884,
      "患": 885,
      "悦": 886,
      "您": 887,
      "悲": 888,
      "悼": 889,
      "情": 890,
      "惊": 891,
      "惑": 892,
      "惜": 893,
      "惟": 894,
      "惠": 895,
      "惧": 896,
      "惩": 897,
      "惫": 898,
      "惬": 899,
      "惯": 900,
      "想": 901,
      "愁": 902,
      "愈": 903,
      "愉": 904,
      "意": 905,
      "愛": 906,
      "感": 907,
      "愤": 908,
      "愧": 909,
      "愿": 910,
      "慈": 911,
      "慎": 912,
      "慕": 913,
      "慢": 914,
      "慧": 915,
      "慨": 916,
      "慰": 917,
      "慷": 918,
      "憧": 919,
      "憬": 920,
      "憾": 921,
      "懂": 922,
      "懈": 923,
      "懒": 924,
      "懦": 925,
      "戏": 926,
      "成": 927,
      "我": 928,
      "或": 929,
      "战": 930,
      "戚": 931,
      "截": 932,
      "戴": 933,
      "户": 934,
      "房": 935,
      "所": 936,
      "扁": 937,
      "扉": 938,
      "手": 939,
      "才": 940,
      "扎": 941,
      "扑": 942,
      "打": 943,
      "扔": 944,
      "托": 945,
      "扣": 946,
      "执": 947,
      "扩": 948,
      "扫": 949,
      "扬": 950,
      "扮": 951,
      "扯": 952,
      "扰": 953,
      "扶": 954,
      "批": 955,
      "找": 956,
      "承": 957,
      "技": 958,
      "抉": 959,
      "把": 960,
      "抑": 961,
      "抓": 962,
      "投": 963,
      "抖": 964,
      "抗": 965,
      "折": 966,
      "抛": 967,
      "抠": 968,
      "抢": 969,
      "护": 970,
      "报": 971,
      "抬": 972,
      "抱": 973,
      "抵": 974,
      "抹": 975,
      "押": 976,
      "抽": 977,
      "拂": 978,
      "担": 979,
      "拉": 980,
      "拍": 981,
      "拒": 982,
      "拓": 983,
      "拖": 984,
      "招": 985,
      "拜": 986,
      "拟": 987,
      "拥": 988,
      "择": 989,
      "括": 990,
      "拯": 991,
      "拳": 992,
      "拼": 993,
      "拽": 994,
      "拿": 995,
      "持": 996,
      "挂": 997,
      "指": 998,
      "按": 999,
      "挎": 1000,
      "挑": 1001,
      "挖": 1002,
      "挚": 1003,
      "挣": 1004,
      "挤": 1005,
      "挥": 1006,
      "挨": 1007,
      "挫": 1008,
      "振": 1009,
      "挺": 1010,
      "捆": 1011,
      "捉": 1012,
      "捎": 1013,
      "捐": 1014,
      "捕": 1015,
      "损": 1016,
      "换": 1017,
      "捧": 1018,
      "据": 1019,
      "掉": 1020,
      "掌": 1021,
      "排": 1022,
      "掘": 1023,
      "採": 1024,
      "探": 1025,
      "接": 1026,
      "控": 1027,
      "推": 1028,
      "掩": 1029,
      "措": 1030,
      "描": 1031,
      "提": 1032,
      "插": 1033,
      "握": 1034,
      "揭": 1035,
      "援": 1036,
      "揽": 1037,
      "搀": 1038,
      "搁": 1039,
      "搂": 1040,
      "搖": 1041,
      "搜": 1042,
      "搞": 1043,
      "搬": 1044,
      "携": 1045,
      "摄": 1046,
      "摆": 1047,
      "摇": 1048,
      "摊": 1049,
      "摔": 1050,
      "摘": 1051,
      "摧": 1052,
      "摩": 1053,
      "撑": 1054,
      "撞": 1055,
      "撤": 1056,
      "撬": 1057,
      "播": 1058,
      "撼": 1059,
      "擅": 1060,
      "操": 1061,
      "擎": 1062,
      "擦": 1063,
      "攀": 1064,
      "攒": 1065,
      "支": 1066,
      "收": 1067,
      "改": 1068,
      "攻": 1069,
      "放": 1070,
      "政": 1071,
      "故": 1072,
      "效": 1073,
      "敏": 1074,
      "救": 1075,
      "教": 1076,
      "敛": 1077,
      "敢": 1078,
      "散": 1079,
      "敦": 1080,
      "敬": 1081,
      "数": 1082,
      "敲": 1083,
      "整": 1084,
      "文": 1085,
      "斑": 1086,
      "斓": 1087,
      "斗": 1088,
      "料": 1089,
      "斥": 1090,
      "斧": 1091,
      "断": 1092,
      "斯": 1093,
      "新": 1094,
      "方": 1095,
      "施": 1096,
      "旁": 1097,
      "旅": 1098,
      "族": 1099,
      "无": 1100,
      "既": 1101,
      "日": 1102,
      "旦": 1103,
      "旧": 1104,
      "旨": 1105,
      "早": 1106,
      "时": 1107,
      "旷": 1108,
      "旺": 1109,
      "昆": 1110,
      "明": 1111,
      "昏": 1112,
      "易": 1113,
      "星": 1114,
      "映": 1115,
      "春": 1116,
      "昨": 1117,
      "是": 1118,
      "显": 1119,
      "時": 1120,
      "晃": 1121,
      "晒": 1122,
      "晓": 1123,
      "晕": 1124,
      "晚": 1125,
      "晨": 1126,
      "普": 1127,
      "景": 1128,
      "晰": 1129,
      "晶": 1130,
      "智": 1131,
      "暂": 1132,
      "暄": 1133,
      "暑": 1134,
      "暖": 1135,
      "暗": 1136,
      "暨": 1137,
      "暮": 1138,
      "暴": 1139,
      "曲": 1140,
      "更": 1141,
      "曼": 1142,
      "曾": 1143,
      "替": 1144,
      "最": 1145,
      "會": 1146,
      "月": 1147,
      "有": 1148,
      "朋": 1149,
      "服": 1150,
      "朗": 1151,
      "望": 1152,
      "朝": 1153,
      "期": 1154,
      "朦": 1155,
      "木": 1156,
      "未": 1157,
      "末": 1158,
      "本": 1159,
      "术": 1160,
      "朱": 1161,
      "朴": 1162,
      "朵": 1163,
      "机": 1164,
      "杀": 1165,
      "杂": 1166,
      "权": 1167,
      "李": 1168,
      "材": 1169,
      "村": 1170,
      "束": 1171,
      "条": 1172,
      "来": 1173,
      "杭": 1174,
      "杯": 1175,
      "杰": 1176,
      "松": 1177,
      "板": 1178,
      "极": 1179,
      "构": 1180,
      "枉": 1181,
      "析": 1182,
      "枕": 1183,
      "林": 1184,
      "果": 1185,
      "枝": 1186,
      "枢": 1187,
      "枣": 1188,
      "枪": 1189,
      "架": 1190,
      "某": 1191,
      "染": 1192,
      "柔": 1193,
      "查": 1194,
      "标": 1195,
      "栋": 1196,
      "栏": 1197,
      "树": 1198,
      "栗": 1199,
      "校": 1200,
      "样": 1201,
      "核": 1202,
      "根": 1203,
      "格": 1204,
      "桃": 1205,
      "框": 1206,
      "案": 1207,
      "桌": 1208,
      "桐": 1209,
      "档": 1210,
      "桥": 1211,
      "桶": 1212,
      "梁": 1213,
      "梦": 1214,
      "梧": 1215,
      "梯": 1216,
      "械": 1217,
      "检": 1218,
      "棉": 1219,
      "棋": 1220,
      "棒": 1221,
      "棕": 1222,
      "棘": 1223,
      "森": 1224,
      "棱": 1225,
      "棵": 1226,
      "椅": 1227,
      "植": 1228,
      "椎": 1229,
      "楚": 1230,
      "楼": 1231,
      "概": 1232,
      "榄": 1233,
      "榜": 1234,
      "榴": 1235,
      "槛": 1236,
      "槟": 1237,
      "槽": 1238,
      "樂": 1239,
      "模": 1240,
      "橄": 1241,
      "橙": 1242,
      "次": 1243,
      "欢": 1244,
      "欣": 1245,
      "欧": 1246,
      "欲": 1247,
      "欺": 1248,
      "款": 1249,
      "歇": 1250,
      "歌": 1251,
      "止": 1252,
      "正": 1253,
      "此": 1254,
      "步": 1255,
      "武": 1256,
      "死": 1257,
      "歼": 1258,
      "殊": 1259,
      "殖": 1260,
      "段": 1261,
      "毁": 1262,
      "母": 1263,
      "每": 1264,
      "毒": 1265,
      "比": 1266,
      "毕": 1267,
      "毛": 1268,
      "毫": 1269,
      "毯": 1270,
      "氏": 1271,
      "民": 1272,
      "气": 1273,
      "氛": 1274,
      "水": 1275,
      "永": 1276,
      "汁": 1277,
      "求": 1278,
      "汉": 1279,
      "江": 1280,
      "汪": 1281,
      "汹": 1282,
      "汽": 1283,
      "沃": 1284,
      "沉": 1285,
      "沐": 1286,
      "沙": 1287,
      "沟": 1288,
      "没": 1289,
      "沥": 1290,
      "沫": 1291,
      "沮": 1292,
      "河": 1293,
      "沸": 1294,
      "油": 1295,
      "治": 1296,
      "沾": 1297,
      "沿": 1298,
      "泉": 1299,
      "泌": 1300,
      "法": 1301,
      "泗": 1302,
      "泛": 1303,
      "泡": 1304,
      "波": 1305,
      "泣": 1306,
      "泥": 1307,
      "注": 1308,
      "泪": 1309,
      "泵": 1310,
      "泼": 1311,
      "泽": 1312,
      "洋": 1313,
      "洒": 1314,
      "洗": 1315,
      "洞": 1316,
      "洪": 1317,
      "洲": 1318,
      "活": 1319,
      "派": 1320,
      "流": 1321,
      "浅": 1322,
      "浇": 1323,
      "测": 1324,
      "济": 1325,
      "浓": 1326,
      "浩": 1327,
      "浪": 1328,
      "浮": 1329,
      "浴": 1330,
      "海": 1331,
      "浸": 1332,
      "涂": 1333,
      "消": 1334,
      "涉": 1335,
      "涌": 1336,
      "涛": 1337,
      "涟": 1338,
      "润": 1339,
      "涩": 1340,
      "涯": 1341,
      "液": 1342,
      "涵": 1343,
      "深": 1344,
      "混": 1345,
      "添": 1346,
      "清": 1347,
      "渐": 1348,
      "渡": 1349,
      "温": 1350,
      "游": 1351,
      "湍": 1352,
      "湖": 1353,
      "湮": 1354,
      "湾": 1355,
      "溉": 1356,
      "源": 1357,
      "溪": 1358,
      "溫": 1359,
      "溯": 1360,
      "溺": 1361,
      "滋": 1362,
      "滑": 1363,
      "滚": 1364,
      "滞": 1365,
      "满": 1366,
      "滤": 1367,
      "滩": 1368,
      "滴": 1369,
      "漂": 1370,
      "漏": 1371,
      "演": 1372,
      "漠": 1373,
      "漪": 1374,
      "漫": 1375,
      "潇": 1376,
      "潜": 1377,
      "澡": 1378,
      "激": 1379,
      "瀚": 1380,
      "灌": 1381,
      "火": 1382,
      "灭": 1383,
      "灯": 1384,
      "灵": 1385,
      "灾": 1386,
      "炉": 1387,
      "炊": 1388,
      "炎": 1389,
      "炫": 1390,
      "炮": 1391,
      "炸": 1392,
      "点": 1393,
      "炼": 1394,
      "炽": 1395,
      "烁": 1396,
      "烈": 1397,
      "烟": 1398,
      "烤": 1399,
      "烦": 1400,
      "烧": 1401,
      "热": 1402,
      "焊": 1403,
      "無": 1404,
      "焦": 1405,
      "焰": 1406,
      "然": 1407,
      "煤": 1408,
      "煦": 1409,
      "照": 1410,
      "煮": 1411,
      "煽": 1412,
      "熊": 1413,
      "熟": 1414,
      "熨": 1415,
      "熬": 1416,
      "燃": 1417,
      "燧": 1418,
      "爆": 1419,
      "爬": 1420,
      "爱": 1421,
      "父": 1422,
      "爷": 1423,
      "爸": 1424,
      "片": 1425,
      "版": 1426,
      "牙": 1427,
      "牛": 1428,
      "牟": 1429,
      "牢": 1430,
      "牧": 1431,
      "物": 1432,
      "牲": 1433,
      "牵": 1434,
      "特": 1435,
      "牺": 1436,
      "犁": 1437,
      "犒": 1438,
      "犬": 1439,
      "犯": 1440,
      "状": 1441,
      "犹": 1442,
      "狂": 1443,
      "狗": 1444,
      "狠": 1445,
      "独": 1446,
      "狭": 1447,
      "狱": 1448,
      "狼": 1449,
      "猖": 1450,
      "猛": 1451,
      "猜": 1452,
      "猪": 1453,
      "猫": 1454,
      "献": 1455,
      "玄": 1456,
      "率": 1457,
      "玉": 1458,
      "王": 1459,
      "玩": 1460,
      "环": 1461,
      "现": 1462,
      "玻": 1463,
      "珊": 1464,
      "珍": 1465,
      "珠": 1466,
      "班": 1467,
      "球": 1468,
      "理": 1469,
      "琢": 1470,
      "琳": 1471,
      "瑟": 1472,
      "璃": 1473,
      "瓜": 1474,
      "瓣": 1475,
      "瓦": 1476,
      "瓶": 1477,
      "甘": 1478,
      "甚": 1479,
      "甜": 1480,
      "生": 1481,
      "用": 1482,
      "田": 1483,
      "由": 1484,
      "甲": 1485,
      "申": 1486,
      "电": 1487,
      "男": 1488,
      "甸": 1489,
      "画": 1490,
      "畅": 1491,
      "界": 1492,
      "畏": 1493,
      "留": 1494,
      "畜": 1495,
      "略": 1496,
      "番": 1497,
      "當": 1498,
      "疆": 1499,
      "疏": 1500,
      "疑": 1501,
      "疗": 1502,
      "疚": 1503,
      "疟": 1504,
      "疯": 1505,
      "疲": 1506,
      "疼": 1507,
      "疾": 1508,
      "病": 1509,
      "症": 1510,
      "痕": 1511,
      "痛": 1512,
      "痴": 1513,
      "瘤": 1514,
      "瘦": 1515,
      "瘾": 1516,
      "癌": 1517,
      "白": 1518,
      "百": 1519,
      "的": 1520,
      "皆": 1521,
      "皇": 1522,
      "皮": 1523,
      "盈": 1524,
      "益": 1525,
      "盏": 1526,
      "盐": 1527,
      "监": 1528,
      "盒": 1529,
      "盖": 1530,
      "盘": 1531,
      "目": 1532,
      "盯": 1533,
      "盲": 1534,
      "直": 1535,
      "相": 1536,
      "盼": 1537,
      "盾": 1538,
      "省": 1539,
      "眉": 1540,
      "看": 1541,
      "真": 1542,
      "眠": 1543,
      "眬": 1544,
      "眶": 1545,
      "眷": 1546,
      "眸": 1547,
      "眼": 1548,
      "着": 1549,
      "睁": 1550,
      "睛": 1551,
      "睡": 1552,
      "睹": 1553,
      "瞧": 1554,
      "瞩": 1555,
      "瞬": 1556,
      "矇": 1557,
      "矗": 1558,
      "矛": 1559,
      "矢": 1560,
      "知": 1561,
      "矩": 1562,
      "短": 1563,
      "石": 1564,
      "码": 1565,
      "砒": 1566,
      "研": 1567,
      "破": 1568,
      "础": 1569,
      "硬": 1570,
      "确": 1571,
      "碌": 1572,
      "碍": 1573,
      "碎": 1574,
      "碗": 1575,
      "碰": 1576,
      "磁": 1577,
      "磨": 1578,
      "示": 1579,
      "礼": 1580,
      "社": 1581,
      "祉": 1582,
      "祖": 1583,
      "祝": 1584,
      "神": 1585,
      "祥": 1586,
      "祸": 1587,
      "禁": 1588,
      "福": 1589,
      "禹": 1590,
      "离": 1591,
      "秀": 1592,
      "私": 1593,
      "秋": 1594,
      "种": 1595,
      "科": 1596,
      "秒": 1597,
      "秘": 1598,
      "租": 1599,
      "秦": 1600,
      "积": 1601,
      "称": 1602,
      "移": 1603,
      "稀": 1604,
      "程": 1605,
      "稍": 1606,
      "稚": 1607,
      "稣": 1608,
      "稳": 1609,
      "穆": 1610,
      "穴": 1611,
      "究": 1612,
      "空": 1613,
      "穿": 1614,
      "突": 1615,
      "窃": 1616,
      "窄": 1617,
      "窍": 1618,
      "窗": 1619,
      "窝": 1620,
      "窥": 1621,
      "立": 1622,
      "站": 1623,
      "竞": 1624,
      "竟": 1625,
      "章": 1626,
      "童": 1627,
      "竭": 1628,
      "端": 1629,
      "笃": 1630,
      "笋": 1631,
      "笑": 1632,
      "笔": 1633,
      "笛": 1634,
      "符": 1635,
      "笨": 1636,
      "第": 1637,
      "笺": 1638,
      "等": 1639,
      "筋": 1640,
      "筑": 1641,
      "答": 1642,
      "策": 1643,
      "筹": 1644,
      "简": 1645,
      "算": 1646,
      "管": 1647,
      "箭": 1648,
      "箱": 1649,
      "篇": 1650,
      "篮": 1651,
      "籁": 1652,
      "籍": 1653,
      "米": 1654,
      "类": 1655,
      "粉": 1656,
      "粒": 1657,
      "粗": 1658,
      "粘": 1659,
      "粹": 1660,
      "精": 1661,
      "糊": 1662,
      "糕": 1663,
      "糖": 1664,
      "糟": 1665,
      "系": 1666,
      "素": 1667,
      "索": 1668,
      "紧": 1669,
      "紫": 1670,
      "累": 1671,
      "給": 1672,
      "經": 1673,
      "繁": 1674,
      "纠": 1675,
      "红": 1676,
      "纤": 1677,
      "约": 1678,
      "级": 1679,
      "纪": 1680,
      "纯": 1681,
      "纳": 1682,
      "纷": 1683,
      "纸": 1684,
      "线": 1685,
      "练": 1686,
      "组": 1687,
      "细": 1688,
      "织": 1689,
      "终": 1690,
      "经": 1691,
      "绑": 1692,
      "绒": 1693,
      "结": 1694,
      "绕": 1695,
      "绘": 1696,
      "给": 1697,
      "络": 1698,
      "绝": 1699,
      "统": 1700,
      "绣": 1701,
      "继": 1702,
      "绩": 1703,
      "绪": 1704,
      "续": 1705,
      "维": 1706,
      "绵": 1707,
      "绷": 1708,
      "综": 1709,
      "绽": 1710,
      "绿": 1711,
      "缎": 1712,
      "编": 1713,
      "缘": 1714,
      "缚": 1715,
      "缝": 1716,
      "缠": 1717,
      "缩": 1718,
      "缺": 1719,
      "网": 1720,
      "罕": 1721,
      "罗": 1722,
      "罚": 1723,
      "罢": 1724,
      "罪": 1725,
      "置": 1726,
      "署": 1727,
      "美": 1728,
      "羞": 1729,
      "群": 1730,
      "羽": 1731,
      "翁": 1732,
      "翅": 1733,
      "翠": 1734,
      "翻": 1735,
      "翼": 1736,
      "耀": 1737,
      "老": 1738,
      "考": 1739,
      "者": 1740,
      "而": 1741,
      "耍": 1742,
      "耐": 1743,
      "耙": 1744,
      "耦": 1745,
      "耳": 1746,
      "耶": 1747,
      "聆": 1748,
      "聊": 1749,
      "职": 1750,
      "联": 1751,
      "聘": 1752,
      "聚": 1753,
      "聪": 1754,
      "肃": 1755,
      "肉": 1756,
      "肌": 1757,
      "肖": 1758,
      "肝": 1759,
      "肠": 1760,
      "股": 1761,
      "肢": 1762,
      "肤": 1763,
      "肥": 1764,
      "肪": 1765,
      "肯": 1766,
      "育": 1767,
      "肺": 1768,
      "肾": 1769,
      "肿": 1770,
      "胀": 1771,
      "胁": 1772,
      "胃": 1773,
      "胆": 1774,
      "背": 1775,
      "胖": 1776,
      "胜": 1777,
      "胞": 1778,
      "胡": 1779,
      "胧": 1780,
      "胱": 1781,
      "胸": 1782,
      "能": 1783,
      "脂": 1784,
      "脆": 1785,
      "脉": 1786,
      "脊": 1787,
      "脏": 1788,
      "脑": 1789,
      "脚": 1790,
      "脱": 1791,
      "脸": 1792,
      "脾": 1793,
      "腊": 1794,
      "腐": 1795,
      "腑": 1796,
      "腔": 1797,
      "腺": 1798,
      "腻": 1799,
      "腾": 1800,
      "腿": 1801,
      "膀": 1802,
      "膨": 1803,
      "臂": 1804,
      "臆": 1805,
      "臉": 1806,
      "自": 1807,
      "至": 1808,
      "致": 1809,
      "舅": 1810,
      "舌": 1811,
      "舍": 1812,
      "舒": 1813,
      "舛": 1814,
      "舞": 1815,
      "航": 1816,
      "般": 1817,
      "舶": 1818,
      "船": 1819,
      "良": 1820,
      "艰": 1821,
      "色": 1822,
      "艳": 1823,
      "艺": 1824,
      "艾": 1825,
      "节": 1826,
      "芒": 1827,
      "芝": 1828,
      "芬": 1829,
      "花": 1830,
      "芳": 1831,
      "芸": 1832,
      "芽": 1833,
      "苍": 1834,
      "苏": 1835,
      "若": 1836,
      "苦": 1837,
      "英": 1838,
      "苹": 1839,
      "范": 1840,
      "茜": 1841,
      "茧": 1842,
      "茶": 1843,
      "茹": 1844,
      "草": 1845,
      "荒": 1846,
      "荡": 1847,
      "荣": 1848,
      "药": 1849,
      "荷": 1850,
      "莉": 1851,
      "莫": 1852,
      "莲": 1853,
      "获": 1854,
      "莹": 1855,
      "莺": 1856,
      "菊": 1857,
      "菜": 1858,
      "菲": 1859,
      "萌": 1860,
      "萤": 1861,
      "营": 1862,
      "萨": 1863,
      "落": 1864,
      "著": 1865,
      "蒂": 1866,
      "蒙": 1867,
      "蒸": 1868,
      "蓄": 1869,
      "蓝": 1870,
      "蔡": 1871,
      "蕩": 1872,
      "薄": 1873,
      "薯": 1874,
      "藏": 1875,
      "藻": 1876,
      "虎": 1877,
      "虑": 1878,
      "虚": 1879,
      "虫": 1880,
      "虽": 1881,
      "蚀": 1882,
      "蚁": 1883,
      "蚊": 1884,
      "蛀": 1885,
      "蛋": 1886,
      "蛙": 1887,
      "蛛": 1888,
      "蜂": 1889,
      "蜘": 1890,
      "蜜": 1891,
      "蝈": 1892,
      "蝉": 1893,
      "蝴": 1894,
      "蝶": 1895,
      "螂": 1896,
      "融": 1897,
      "螳": 1898,
      "血": 1899,
      "衅": 1900,
      "行": 1901,
      "衍": 1902,
      "街": 1903,
      "衡": 1904,
      "衣": 1905,
      "补": 1906,
      "表": 1907,
      "衬": 1908,
      "衰": 1909,
      "衷": 1910,
      "袋": 1911,
      "袖": 1912,
      "被": 1913,
      "装": 1914,
      "裡": 1915,
      "裤": 1916,
      "裨": 1917,
      "裸": 1918,
      "裹": 1919,
      "複": 1920,
      "褪": 1921,
      "褶": 1922,
      "襟": 1923,
      "西": 1924,
      "要": 1925,
      "覆": 1926,
      "見": 1927,
      "視": 1928,
      "覺": 1929,
      "见": 1930,
      "观": 1931,
      "规": 1932,
      "视": 1933,
      "觉": 1934,
      "角": 1935,
      "解": 1936,
      "触": 1937,
      "言": 1938,
      "誓": 1939,
      "警": 1940,
      "譬": 1941,
      "讓": 1942,
      "计": 1943,
      "订": 1944,
      "认": 1945,
      "讨": 1946,
      "让": 1947,
      "训": 1948,
      "议": 1949,
      "讯": 1950,
      "记": 1951,
      "讲": 1952,
      "讶": 1953,
      "许": 1954,
      "论": 1955,
      "设": 1956,
      "访": 1957,
      "诀": 1958,
      "证": 1959,
      "评": 1960,
      "识": 1961,
      "诉": 1962,
      "诊": 1963,
      "词": 1964,
      "试": 1965,
      "诗": 1966,
      "诚": 1967,
      "话": 1968,
      "诞": 1969,
      "诠": 1970,
      "诡": 1971,
      "询": 1972,
      "该": 1973,
      "诧": 1974,
      "语": 1975,
      "误": 1976,
      "诱": 1977,
      "说": 1978,
      "诵": 1979,
      "请": 1980,
      "诸": 1981,
      "诺": 1982,
      "读": 1983,
      "课": 1984,
      "谁": 1985,
      "调": 1986,
      "谅": 1987,
      "谆": 1988,
      "谈": 1989,
      "谊": 1990,
      "谋": 1991,
      "谐": 1992,
      "谓": 1993,
      "谛": 1994,
      "谢": 1995,
      "谦": 1996,
      "谧": 1997,
      "谨": 1998,
      "谱": 1999,
      "谷": 2000,
      "豆": 2001,
      "豌": 2002,
      "豚": 2003,
      "象": 2004,
      "豪": 2005,
      "豫": 2006,
      "貌": 2007,
      "贝": 2008,
      "负": 2009,
      "贡": 2010,
      "财": 2011,
      "责": 2012,
      "败": 2013,
      "账": 2014,
      "质": 2015,
      "贩": 2016,
      "贪": 2017,
      "贫": 2018,
      "贯": 2019,
      "贴": 2020,
      "贵": 2021,
      "贸": 2022,
      "费": 2023,
      "贾": 2024,
      "资": 2025,
      "赋": 2026,
      "赏": 2027,
      "赐": 2028,
      "赖": 2029,
      "赚": 2030,
      "赛": 2031,
      "赞": 2032,
      "赠": 2033,
      "赢": 2034,
      "赤": 2035,
      "赫": 2036,
      "走": 2037,
      "赶": 2038,
      "起": 2039,
      "超": 2040,
      "越": 2041,
      "趣": 2042,
      "足": 2043,
      "趴": 2044,
      "跃": 2045,
      "跑": 2046,
      "距": 2047,
      "跟": 2048,
      "跨": 2049,
      "路": 2050,
      "跳": 2051,
      "践": 2052,
      "踏": 2053,
      "踩": 2054,
      "踪": 2055,
      "蹄": 2056,
      "蹈": 2057,
      "蹋": 2058,
      "蹦": 2059,
      "蹶": 2060,
      "蹿": 2061,
      "躁": 2062,
      "身": 2063,
      "躬": 2064,
      "躯": 2065,
      "躲": 2066,
      "躺": 2067,
      "车": 2068,
      "轨": 2069,
      "转": 2070,
      "轮": 2071,
      "软": 2072,
      "轰": 2073,
      "轻": 2074,
      "载": 2075,
      "较": 2076,
      "辅": 2077,
      "辈": 2078,
      "辉": 2079,
      "辐": 2080,
      "辑": 2081,
      "输": 2082,
      "辛": 2083,
      "辜": 2084,
      "辞": 2085,
      "辨": 2086,
      "辩": 2087,
      "辰": 2088,
      "辱": 2089,
      "边": 2090,
      "达": 2091,
      "迁": 2092,
      "迅": 2093,
      "过": 2094,
      "迈": 2095,
      "迎": 2096,
      "运": 2097,
      "近": 2098,
      "还": 2099,
      "这": 2100,
      "进": 2101,
      "远": 2102,
      "连": 2103,
      "迦": 2104,
      "迪": 2105,
      "迫": 2106,
      "述": 2107,
      "迷": 2108,
      "迹": 2109,
      "追": 2110,
      "退": 2111,
      "送": 2112,
      "适": 2113,
      "逃": 2114,
      "选": 2115,
      "逊": 2116,
      "透": 2117,
      "逐": 2118,
      "递": 2119,
      "途": 2120,
      "這": 2121,
      "通": 2122,
      "逛": 2123,
      "逝": 2124,
      "速": 2125,
      "造": 2126,
      "逢": 2127,
      "逸": 2128,
      "逻": 2129,
      "逼": 2130,
      "逾": 2131,
      "遇": 2132,
      "遍": 2133,
      "過": 2134,
      "道": 2135,
      "遗": 2136,
      "遠": 2137,
      "遣": 2138,
      "遥": 2139,
      "遭": 2140,
      "遵": 2141,
      "避": 2142,
      "邀": 2143,
      "邃": 2144,
      "那": 2145,
      "邦": 2146,
      "邻": 2147,
      "郁": 2148,
      "部": 2149,
      "郫": 2150,
      "都": 2151,
      "配": 2152,
      "酒": 2153,
      "酱": 2154,
      "酵": 2155,
      "酷": 2156,
      "醒": 2157,
      "采": 2158,
      "释": 2159,
      "里": 2160,
      "重": 2161,
      "野": 2162,
      "量": 2163,
      "金": 2164,
      "鉴": 2165,
      "针": 2166,
      "钟": 2167,
      "钢": 2168,
      "钱": 2169,
      "铁": 2170,
      "铜": 2171,
      "铧": 2172,
      "铭": 2173,
      "铺": 2174,
      "铿": 2175,
      "销": 2176,
      "锁": 2177,
      "锅": 2178,
      "锋": 2179,
      "锐": 2180,
      "错": 2181,
      "锡": 2182,
      "锤": 2183,
      "锦": 2184,
      "键": 2185,
      "锵": 2186,
      "锻": 2187,
      "镀": 2188,
      "镁": 2189,
      "镇": 2190,
      "镚": 2191,
      "镜": 2192,
      "长": 2193,
      "開": 2194,
      "门": 2195,
      "闪": 2196,
      "闭": 2197,
      "问": 2198,
      "闯": 2199,
      "闲": 2200,
      "间": 2201,
      "闷": 2202,
      "闹": 2203,
      "闻": 2204,
      "阂": 2205,
      "阅": 2206,
      "阔": 2207,
      "队": 2208,
      "防": 2209,
      "阳": 2210,
      "阴": 2211,
      "阵": 2212,
      "阶": 2213,
      "阻": 2214,
      "阿": 2215,
      "附": 2216,
      "际": 2217,
      "陆": 2218,
      "陌": 2219,
      "降": 2220,
      "限": 2221,
      "院": 2222,
      "除": 2223,
      "险": 2224,
      "陪": 2225,
      "陶": 2226,
      "陷": 2227,
      "隋": 2228,
      "随": 2229,
      "隐": 2230,
      "隔": 2231,
      "隙": 2232,
      "障": 2233,
      "隽": 2234,
      "难": 2235,
      "雀": 2236,
      "雄": 2237,
      "雅": 2238,
      "集": 2239,
      "雏": 2240,
      "雨": 2241,
      "需": 2242,
      "震": 2243,
      "霜": 2244,
      "露": 2245,
      "霸": 2246,
      "青": 2247,
      "靓": 2248,
      "静": 2249,
      "非": 2250,
      "靠": 2251,
      "面": 2252,
      "革": 2253,
      "鞋": 2254,
      "鞠": 2255,
      "韦": 2256,
      "音": 2257,
      "韵": 2258,
      "页": 2259,
      "顶": 2260,
      "项": 2261,
      "顺": 2262,
      "须": 2263,
      "顽": 2264,
      "顾": 2265,
      "顿": 2266,
      "预": 2267,
      "领": 2268,
      "颇": 2269,
      "颈": 2270,
      "频": 2271,
      "颖": 2272,
      "颗": 2273,
      "题": 2274,
      "颜": 2275,
      "额": 2276,
      "颠": 2277,
      "颤": 2278,
      "风": 2279,
      "飞": 2280,
      "食": 2281,
      "餐": 2282,
      "饭": 2283,
      "饮": 2284,
      "饼": 2285,
      "馈": 2286,
      "馋": 2287,
      "馍": 2288,
      "首": 2289,
      "香": 2290,
      "馨": 2291,
      "马": 2292,
      "驭": 2293,
      "驯": 2294,
      "驱": 2295,
      "驴": 2296,
      "驶": 2297,
      "驾": 2298,
      "骂": 2299,
      "骄": 2300,
      "验": 2301,
      "骤": 2302,
      "骨": 2303,
      "骼": 2304,
      "髓": 2305,
      "高": 2306,
      "鬓": 2307,
      "鬼": 2308,
      "魁": 2309,
      "魂": 2310,
      "魅": 2311,
      "魔": 2312,
      "鱼": 2313,
      "鲁": 2314,
      "鲜": 2315,
      "鲸": 2316,
      "鳞": 2317,
      "鸟": 2318,
      "鸡": 2319,
      "鸣": 2320,
      "鸦": 2321,
      "鸿": 2322,
      "鹅": 2323,
      "鹰": 2324,
      "麦": 2325,
      "麻": 2326,
      "黄": 2327,
      "黎": 2328,
      "黑": 2329,
      "默": 2330,
      "黝": 2331,
      "鼓": 2332,
      "鼻": 2333,
      "齐": 2334,
      "齿": 2335,
      "龄": 2336,
      "龙": 2337,
      "！": 2338,
      "（": 2339,
      "）": 2340,
      "，": 2341,
      "－": 2342,
      "：": 2343,
      "；": 2344,
      "？": 2345,
      "th": 2346,
      "ou": 2347,
      "er": 2348,
      "in": 2349,
      "an": 2350,
      "the": 2351,
      "or": 2352,
      "en": 2353,
      "is": 2354,
      "ar": 2355,
      "at": 2356,
      "on": 2357,
      "es": 2358,
      "ll": 2359,
      "to": 2360,
      "and": 2361,
      "st": 2362,
      "me": 2363,
      "you": 2364,
      "he": 2365,
      "ing": 2366,
      "re": 2367,
      "se": 2368,
      "no": 2369,
      "of": 2370,
      "it": 2371,
      "ve": 2372,
      "ha": 2373,
      "le": 2374,
      "be": 2375,
      "wi": 2376,
      "ch": 2377,
      "ro": 2378,
      "my": 2379,
      "as": 2380,
      "ce": 2381,
      "for": 2382,
      "ay": 2383,
      "ed": 2384,
      "ld": 2385,
      "hi": 2386,
      "nd": 2387,
      "ow": 2388,
      "ere": 2389,
      "ir": 2390,
      "li": 2391,
      "ut": 2392,
      "that": 2393,
      "we": 2394,
      "not": 2395,
      "gh": 2396,
      "de": 2397,
      "al": 2398,
      "hat": 2399,
      "ke": 2400,
      "ent": 2401,
      "oo": 2402,
      "with": 2403,
      "our": 2404,
      "so": 2405,
      "And": 2406,
      "your": 2407,
      "ri": 2408,
      "his": 2409,
      "ad": 2410,
      "ly": 2411,
      "co": 2412,
      "ther": 2413,
      "all": 2414,
      "et": 2415,
      "ti": 2416,
      "thou": 2417,
      "ur": 2418,
      "ver": 2419,
      "ght": 2420,
      "us": 2421,
      "ra": 2422,
      "ho": 2423,
      "have": 2424,
      "this": 2425,
      "do": 2426,
      "ess": 2427,
      "fe": 2428,
      "un": 2429,
      "EN": 2430,
      "lo": 2431,
      "are": 2432,
      "ma": 2433,
      "him": 2434,
      "pe": 2435,
      "IN": 2436,
      "ord": 2437,
      "est": 2438,
      "id": 2439,
      "am": 2440,
      "IO": 2441,
      "ould": 2442,
      "one": 2443,
      "ne": 2444,
      "ck": 2445,
      "ood": 2446,
      "here": 2447,
      "ge": 2448,
      "man": 2449,
      "fa": 2450,
      "The": 2451,
      "will": 2452,
      "now": 2453,
      "AR": 2454,
      "su": 2455,
      "thy": 2456,
      "but": 2457,
      "ter": 2458,
      "ain": 2459,
      "her": 2460,
      "sha": 2461,
      "con": 2462,
      "ard": 2463,
      "ion": 2464,
      "hen": 2465,
      "end": 2466,
      "by": 2467,
      "ru": 2468,
      "pr": 2469,
      "art": 2470,
      "US": 2471,
      "la": 2472,
      "mo": 2473,
      "sh": 2474,
      "po": 2475,
      "To": 2476,
      "mor": 2477,
      "rom": 2478,
      "te": 2479,
      "com": 2480,
      "thee": 2481,
      "if": 2482,
      "ta": 2483,
      "up": 2484,
      "was": 2485,
      "what": 2486,
      "shall": 2487,
      "sel": 2488,
      "qu": 2489,
      "ous": 2490,
      "Th": 2491,
      "ul": 2492,
      "ct": 2493,
      "UC": 2494,
      "ble": 2495,
      "ant": 2496,
      "ill": 2497,
      "bo": 2498,
      "go": 2499,
      "ca": 2500,
      "out": 2501,
      "ine": 2502,
      "ING": 2503,
      "That": 2504,
      "ust": 2505,
      "king": 2506,
      "AN": 2507,
      "But": 2508,
      "il": 2509,
      "ath": 2510,
      "ER": 2511,
      "OR": 2512,
      "ven": 2513,
      "per": 2514,
      "good": 2515,
      "from": 2516,
      "can": 2517,
      "wor": 2518,
      "row": 2519,
      "ive": 2520,
      "ong": 2521,
      "ight": 2522,
      "sa": 2523,
      "she": 2524,
      "hich": 2525,
      "ET": 2526,
      "ind": 2527,
      "ry": 2528,
      "ES": 2529,
      "ci": 2530,
      "What": 2531,
      "more": 2532,
      "love": 2533,
      "them": 2534,
      "di": 2535,
      "lord": 2536,
      "come": 2537,
      "self": 2538,
      "pro": 2539,
      "bl": 2540,
      "ple": 2541,
      "know": 2542,
      "there": 2543,
      "ak": 2544,
      "ate": 2545,
      "own": 2546,
      "KING": 2547,
      "would": 2548,
      "they": 2549,
      "For": 2550,
      "ome": 2551,
      "well": 2552,
      "then": 2553,
      "say": 2554,
      "their": 2555,
      "let": 2556,
      "see": 2557,
      "ear": 2558,
      "like": 2559,
      "way": 2560,
      "thing": 2561,
      "IC": 2562,
      "sir": 2563,
      "ence": 2564,
      "than": 2565,
      "ers": 2566,
      "ure": 2567,
      "ag": 2568,
      "ep": 2569,
      "LO": 2570,
      "some": 2571,
      "My": 2572,
      "We": 2573,
      "fi": 2574,
      "fore": 2575,
      "very": 2576,
      "IUS": 2577,
      "ARD": 2578,
      "hy": 2579,
      "use": 2580,
      "who": 2581,
      "spe": 2582,
      "ves": 2583,
      "--": 2584,
      "were": 2585,
      "ity": 2586,
      "You": 2587,
      "ish": 2588,
      "ap": 2589,
      "ook": 2590,
      "too": 2591,
      "day": 2592,
      "ink": 2593,
      "ast": 2594,
      "ound": 2595,
      "si": 2596,
      "wo": 2597,
      "ation": 2598,
      "ab": 2599,
      "may": 2600,
      "el": 2601,
      "As": 2602,
      "irst": 2603,
      "Go": 2604,
      "ex": 2605,
      "tru": 2606,
      "how": 2607,
      "ith": 2608,
      "had": 2609,
      "when": 2610,
      "time": 2611,
      "ment": 2612,
      "make": 2613,
      "bro": 2614,
      "EL": 2615,
      "No": 2616,
      "son": 2617,
      "He": 2618,
      "sp": 2619,
      "did": 2620,
      "gra": 2621,
      "should": 2622,
      "If": 2623,
      "KE": 2624,
      "ave": 2625,
      "father": 2626,
      "must": 2627,
      "hath": 2628,
      "men": 2629,
      "II": 2630,
      "word": 2631,
      "reat": 2632,
      "tion": 2633,
      "ig": 2634,
      "oun": 2635,
      "ance": 2636,
      "pl": 2637,
      "ang": 2638,
      "which": 2639,
      "life": 2640,
      "dis": 2641,
      "In": 2642,
      "fri": 2643,
      "ol": 2644,
      "ic": 2645,
      "OL": 2646,
      "RO": 2647,
      "ac": 2648,
      "heart": 2649,
      "chi": 2650,
      "LA": 2651,
      "TIO": 2652,
      "upon": 2653,
      "ward": 2654,
      "我们": 2655,
      "ue": 2656,
      "ful": 2657,
      "mb": 2658,
      "mp": 2659,
      "CA": 2660,
      "think": 2661,
      "death": 2662,
      "ts": 2663,
      "EO": 2664,
      "any": 2665,
      "take": 2666,
      "vi": 2667,
      "hand": 2668,
      "Be": 2669,
      "other": 2670,
      "again": 2671,
      "most": 2672,
      "ba": 2673,
      "ving": 2674,
      "IS": 2675,
      "So": 2676,
      "This": 2677,
      "speak": 2678,
      "entle": 2679,
      "mar": 2680,
      "yet": 2681,
      "des": 2682,
      "res": 2683,
      "read": 2684,
      "ICH": 2685,
      "RICH": 2686,
      "Why": 2687,
      "age": 2688,
      "give": 2689,
      "tell": 2690,
      "DU": 2691,
      "ans": 2692,
      "DUKE": 2693,
      "ness": 2694,
      "such": 2695,
      "ms": 2696,
      "these": 2697,
      "hon": 2698,
      "less": 2699,
      "ince": 2700,
      "ough": 2701,
      "mine": 2702,
      "uch": 2703,
      "af": 2704,
      "UL": 2705,
      "Of": 2706,
      "RICHARD": 2707,
      "where": 2708,
      "ort": 2709,
      "ise": 2710,
      "ENTIO": 2711,
      "swe": 2712,
      "Which": 2713,
      "coun": 2714,
      "new": 2715,
      "God": 2716,
      "How": 2717,
      "With": 2718,
      "ies": 2719,
      "look": 2720,
      "ond": 2721,
      "hear": 2722,
      "ef": 2723,
      "na": 2724,
      "ey": 2725,
      "INC": 2726,
      "friend": 2727,
      "First": 2728,
      "old": 2729,
      "und": 2730,
      "hea": 2731,
      "land": 2732,
      "llow": 2733,
      "brother": 2734,
      "stand": 2735,
      "blood": 2736,
      "ars": 2737,
      "pre": 2738,
      "bre": 2739,
      "vo": 2740,
      "AB": 2741,
      "ty": 2742,
      "pp": 2743,
      "It": 2744,
      "mer": 2745,
      "mis": 2746,
      "tis": 2747,
      "sed": 2748,
      "urn": 2749,
      "UE": 2750,
      "gr": 2751,
      "au": 2752,
      "str": 2753,
      "int": 2754,
      "much": 2755,
      "oul": 2756,
      "child": 2757,
      "br": 2758,
      "ach": 2759,
      "gentle": 2760,
      "一个": 2761,
      "ass": 2762,
      "du": 2763,
      "cause": 2764,
      "EST": 2765,
      "Come": 2766,
      "ign": 2767,
      "UCH": 2768,
      "Who": 2769,
      "never": 2770,
      "ng": 2771,
      "wr": 2772,
      "made": 2773,
      "rown": 2774,
      "GLO": 2775,
      "tr": 2776,
      "ree": 2777,
      "off": 2778,
      "ower": 2779,
      "fair": 2780,
      "UCEST": 2781,
      "world": 2782,
      "GLOUCEST": 2783,
      "GLOUCESTER": 2784,
      "call": 2785,
      "great": 2786,
      "night": 2787,
      "Thou": 2788,
      "mi": 2789,
      "lie": 2790,
      "hast": 2791,
      "Lord": 2792,
      "jo": 2793,
      "tle": 2794,
      "Now": 2795,
      "Se": 2796,
      "part": 2797,
      "When": 2798,
      "Rome": 2799,
      "ever": 2800,
      "live": 2801,
      "RY": 2802,
      "im": 2803,
      "Is": 2804,
      "ser": 2805,
      "QUE": 2806,
      "VINC": 2807,
      "honour": 2808,
      "QUEEN": 2809,
      "VINCENTIO": 2810,
      "OF": 2811,
      "ite": 2812,
      "Where": 2813,
      "fo": 2814,
      "om": 2815,
      "war": 2816,
      "ster": 2817,
      "Mar": 2818,
      "UM": 2819,
      "fl": 2820,
      "bet": 2821,
      "LAN": 2822,
      "cond": 2823,
      "dy": 2824,
      "lt": 2825,
      "op": 2826,
      "HEN": 2827,
      "There": 2828,
      "sc": 2829,
      "Your": 2830,
      "cl": 2831,
      "fear": 2832,
      "ople": 2833,
      "red": 2834,
      "been": 2835,
      "pa": 2836,
      "long": 2837,
      "HENRY": 2838,
      "every": 2839,
      "head": 2840,
      "true": 2841,
      "ten": 2842,
      "people": 2843,
      "comm": 2844,
      "iz": 2845,
      "fort": 2846,
      "ON": 2847,
      "nor": 2848,
      "tra": 2849,
      "name": 2850,
      "cannot": 2851,
      "urse": 2852,
      "mother": 2853,
      "Or": 2854,
      "YOR": 2855,
      "YORK": 2856,
      "before": 2857,
      "down": 2858,
      "ved": 2859,
      "done": 2860,
      "INIUS": 2861,
      "sweet": 2862,
      "Then": 2863,
      "ace": 2864,
      "ction": 2865,
      "whi": 2866,
      "ings": 2867,
      "light": 2868,
      "many": 2869,
      "pray": 2870,
      "An": 2871,
      "put": 2872,
      "que": 2873,
      "ie": 2874,
      "ice": 2875,
      "noble": 2876,
      "about": 2877,
      "heaven": 2878,
      "PET": 2879,
      "par": 2880,
      "need": 2881,
      "cour": 2882,
      "thought": 2883,
      "TH": 2884,
      "being": 2885,
      "DW": 2886,
      "EDW": 2887,
      "She": 2888,
      "gu": 2889,
      "自己": 2890,
      "EDWARD": 2891,
      "GR": 2892,
      "ese": 2893,
      "set": 2894,
      "cont": 2895,
      ",--": 2896,
      "ren": 2897,
      "ull": 2898,
      "doth": 2899,
      "get": 2900,
      "bear": 2901,
      "lad": 2902,
      "tho": 2903,
      "ouse": 2904,
      "LUC": 2905,
      "MEN": 2906,
      "pt": 2907,
      "ore": 2908,
      "pres": 2909,
      "mber": 2910,
      "Ay": 2911,
      "lit": 2912,
      "ss": 2913,
      "soul": 2914,
      "led": 2915,
      "able": 2916,
      "just": 2917,
      "ange": 2918,
      "Ed": 2919,
      "Let": 2920,
      "der": 2921,
      "pri": 2922,
      "ake": 2923,
      "both": 2924,
      "grace": 2925,
      "words": 2926,
      "By": 2927,
      "eng": 2928,
      "UT": 2929,
      "ase": 2930,
      "ted": 2931,
      "orn": 2932,
      "right": 2933,
      "ally": 2934,
      "aught": 2935,
      "Here": 2936,
      "leave": 2937,
      "hold": 2938,
      "comes": 2939,
      "MEO": 2940,
      "che": 2941,
      "ret": 2942,
      "myself": 2943,
      "ROMEO": 2944,
      "Edward": 2945,
      "Ri": 2946,
      "away": 2947,
      "rest": 2948,
      "ENIUS": 2949,
      "eyes": 2950,
      "friends": 2951,
      "MENENIUS": 2952,
      "pla": 2953,
      "um": 2954,
      "ste": 2955,
      "queen": 2956,
      "could": 2957,
      "dead": 2958,
      "tri": 2959,
      "RUCH": 2960,
      "io": 2961,
      "kes": 2962,
      "its": 2963,
      "PETRUCH": 2964,
      "PETRUCHIO": 2965,
      "OM": 2966,
      "atter": 2967,
      "Than": 2968,
      "NT": 2969,
      "ds": 2970,
      "kind": 2971,
      "atch": 2972,
      "said": 2973,
      "house": 2974,
      "thus": 2975,
      "happ": 2976,
      "Cl": 2977,
      "wick": 2978,
      "ears": 2979,
      "ps": 2980,
      "under": 2981,
      "HA": 2982,
      "MAR": 2983,
      "first": 2984,
      "tal": 2985,
      "ins": 2986,
      "Do": 2987,
      "wife": 2988,
      "Second": 2989,
      "COR": 2990,
      "IZ": 2991,
      "iness": 2992,
      "still": 2993,
      "IOLAN": 2994,
      "back": 2995,
      "CORIOLAN": 2996,
      "CORIOLANUS": 2997,
      "Nor": 2998,
      "high": 2999,
      "qui": 3000,
      "daught": 3001,
      "shi": 3002,
      "deed": 3003,
      "poor": 3004,
      "die": 3005,
      "BA": 3006,
      "cy": 3007,
      "ool": 3008,
      "home": 3009,
      "ces": 3010,
      "face": 3011,
      "those": 3012,
      "Rich": 3013,
      "ft": 3014,
      "ks": 3015,
      "stay": 3016,
      "beg": 3017,
      "cious": 3018,
      "nothing": 3019,
      "itiz": 3020,
      "INA": 3021,
      "show": 3022,
      "itizen": 3023,
      "might": 3024,
      "want": 3025,
      "tre": 3026,
      "better": 3027,
      "den": 3028,
      "wer": 3029,
      "IV": 3030,
      "even": 3031,
      "find": 3032,
      "ting": 3033,
      "ors": 3034,
      "cle": 3035,
      "far": 3036,
      "though": 3037,
      "III": 3038,
      "joy": 3039,
      "Sir": 3040,
      "has": 3041,
      "crown": 3042,
      "gri": 3043,
      "gone": 3044,
      "only": 3045,
      "char": 3046,
      "His": 3047,
      "War": 3048,
      "bid": 3049,
      "em": 3050,
      "power": 3051,
      "hel": 3052,
      "tim": 3053,
      "little": 3054,
      "LEO": 3055,
      "over": 3056,
      "pur": 3057,
      "two": 3058,
      "daughter": 3059,
      "Warwick": 3060,
      "mad": 3061,
      "ran": 3062,
      "没有": 3063,
      "ison": 3064,
      "young": 3065,
      "keep": 3066,
      "cess": 3067,
      "mean": 3068,
      "Tis": 3069,
      "je": 3070,
      "try": 3071,
      "full": 3072,
      "sent": 3073,
      "tain": 3074,
      "ELLA": 3075,
      "ISAB": 3076,
      "ISABELLA": 3077,
      "bu": 3078,
      "nat": 3079,
      "ning": 3080,
      "这个": 3081,
      "ater": 3082,
      "Romeo": 3083,
      "RAN": 3084,
      "hour": 3085,
      "tong": 3086,
      "hall": 3087,
      "ason": 3088,
      "ford": 3089,
      "till": 3090,
      "Well": 3091,
      "else": 3092,
      "best": 3093,
      "ither": 3094,
      "ried": 3095,
      "comp": 3096,
      "IET": 3097,
      "JUL": 3098,
      "什么": 3099,
      "你的": 3100,
      "into": 3101,
      "urder": 3102,
      "NTES": 3103,
      "LEONTES": 3104,
      "JULIET": 3105,
      "Nay": 3106,
      "VI": 3107,
      "mind": 3108,
      "dear": 3109,
      "prince": 3110,
      "IL": 3111,
      "ban": 3112,
      "tend": 3113,
      "sub": 3114,
      "after": 3115,
      "DY": 3116,
      "Pro": 3117,
      "ST": 3118,
      "Un": 3119,
      "band": 3120,
      "stru": 3121,
      "une": 3122,
      "LADY": 3123,
      "BR": 3124,
      "CE": 3125,
      "VOL": 3126,
      "fer": 3127,
      "arm": 3128,
      "ition": 3129,
      "ENCE": 3130,
      "They": 3131,
      "lack": 3132,
      "news": 3133,
      "Citizen": 3134,
      "TA": 3135,
      "sle": 3136,
      "bed": 3137,
      "body": 3138,
      "against": 3139,
      "while": 3140,
      "CL": 3141,
      "Ser": 3142,
      "如果": 3143,
      "ought": 3144,
      "ary": 3145,
      "hope": 3146,
      "hence": 3147,
      "les": 3148,
      "ory": 3149,
      "Not": 3150,
      "SIC": 3151,
      "cur": 3152,
      "uck": 3153,
      "就是": 3154,
      "form": 3155,
      "came": 3156,
      "SICINIUS": 3157,
      "ech": 3158,
      "follow": 3159,
      "place": 3160,
      "thr": 3161,
      "himself": 3162,
      "ardon": 3163,
      "law": 3164,
      "cut": 3165,
      "gi": 3166,
      "sor": 3167,
      "时候": 3168,
      "once": 3169,
      "master": 3170,
      "children": 3171,
      "All": 3172,
      "EY": 3173,
      "ark": 3174,
      "roy": 3175,
      "forth": 3176,
      "fall": 3177,
      "why": 3178,
      "peace": 3179,
      "boy": 3180,
      "therefore": 3181,
      "Have": 3182,
      "aut": 3183,
      "hus": 3184,
      "sen": 3185,
      "oud": 3186,
      "Thy": 3187,
      "LUCIO": 3188,
      "cor": 3189,
      "ates": 3190,
      "unto": 3191,
      "earth": 3192,
      "Richard": 3193,
      "cent": 3194,
      "lay": 3195,
      "ork": 3196,
      "last": 3197,
      "Will": 3198,
      "ener": 3199,
      "person": 3200,
      "things": 3201,
      "Good": 3202,
      "York": 3203,
      "reme": 3204,
      "duke": 3205,
      "husband": 3206,
      "cer": 3207,
      "kill": 3208,
      "vir": 3209,
      "conf": 3210,
      "lady": 3211,
      "bra": 3212,
      "clo": 3213,
      "gar": 3214,
      "thine": 3215,
      "lau": 3216,
      "pos": 3217,
      "selves": 3218,
      "ETH": 3219,
      "ELIZ": 3220,
      "ABETH": 3221,
      "tongue": 3222,
      "ELIZABETH": 3223,
      "sand": 3224,
      "ister": 3225,
      "arewell": 3226,
      "tears": 3227,
      "times": 3228,
      "IAN": 3229,
      "Yet": 3230,
      "pass": 3231,
      "sun": 3232,
      "ud": 3233,
      "feel": 3234,
      "present": 3235,
      "Hen": 3236,
      "bus": 3237,
      "dou": 3238,
      "eld": 3239,
      "xt": 3240,
      "rep": 3241,
      "help": 3242,
      "Henry": 3243,
      "IA": 3244,
      "On": 3245,
      "因为": 3246,
      "wel": 3247,
      "morrow": 3248,
      "work": 3249,
      "PER": 3250,
      "cha": 3251,
      "turn": 3252,
      "ze": 3253,
      "stra": 3254,
      "tic": 3255,
      "ship": 3256,
      "From": 3257,
      "GE": 3258,
      "Our": 3259,
      "Shall": 3260,
      "WAR": 3261,
      "WIC": 3262,
      "ily": 3263,
      "none": 3264,
      "years": 3265,
      "ready": 3266,
      "WARWIC": 3267,
      "WARWICK": 3268,
      "hor": 3269,
      "vant": 3270,
      "heard": 3271,
      "thousand": 3272,
      "fellow": 3273,
      "bring": 3274,
      "Nurse": 3275,
      "since": 3276,
      "他们": 3277,
      "的人": 3278,
      "arn": 3279,
      "meet": 3280,
      "makes": 3281,
      "pose": 3282,
      "woman": 3283,
      "ments": 3284,
      "hands": 3285,
      "ject": 3286,
      "mon": 3287,
      "sto": 3288,
      "inter": 3289,
      "med": 3290,
      "ask": 3291,
      "ceive": 3292,
      "lords": 3293,
      "answer": 3294,
      "wrong": 3295,
      "HAM": 3296,
      "PUL": 3297,
      "dra": 3298,
      "pardon": 3299,
      "hither": 3300,
      "lies": 3301,
      "CAPUL": 3302,
      "CAPULET": 3303,
      "bri": 3304,
      "ken": 3305,
      "vy": 3306,
      "vent": 3307,
      "wit": 3308,
      "可以": 3309,
      "生活": 3310,
      "MIO": 3311,
      "ire": 3312,
      "ousin": 3313,
      "ult": 3314,
      "min": 3315,
      "whose": 3316,
      "happy": 3317,
      "BUC": 3318,
      "dre": 3319,
      "ius": 3320,
      "ious": 3321,
      "rel": 3322,
      "without": 3323,
      "KINGHAM": 3324,
      "UTUS": 3325,
      "BRUTUS": 3326,
      "BUCKINGHAM": 3327,
      "BOL": 3328,
      "BRO": 3329,
      "TRAN": 3330,
      "car": 3331,
      "care": 3332,
      "gain": 3333,
      "run": 3334,
      "wn": 3335,
      "beaut": 3336,
      "asure": 3337,
      "yourself": 3338,
      "INGBRO": 3339,
      "ESS": 3340,
      "LAU": 3341,
      "BOLINGBRO": 3342,
      "TRANIO": 3343,
      "BOLINGBROKE": 3344,
      "Her": 3345,
      "MIL": 3346,
      "book": 3347,
      "jest": 3348,
      "ati": 3349,
      "state": 3350,
      "reason": 3351,
      "eye": 3352,
      "vost": 3353,
      "sorrow": 3354,
      "TIS": 3355,
      "ali": 3356,
      "vis": 3357,
      "iss": 3358,
      "maid": 3359,
      "whom": 3360,
      "royal": 3361,
      "cra": 3362,
      "sm": 3363,
      "another": 3364,
      "ents": 3365,
      "shame": 3366,
      "vice": 3367,
      "Ch": 3368,
      "Eng": 3369,
      "GAR": 3370,
      "King": 3371,
      "NE": 3372,
      "St": 3373,
      "cre": 3374,
      "fal": 3375,
      "gre": 3376,
      "imp": 3377,
      "vers": 3378,
      "prison": 3379,
      "prove": 3380,
      "ways": 3381,
      "spir": 3382,
      "MARGAR": 3383,
      "MARGARET": 3384,
      "ATH": 3385,
      "bal": 3386,
      "ier": 3387,
      "matter": 3388,
      "wa": 3389,
      "stri": 3390,
      "because": 3391,
      "truth": 3392,
      "gn": 3393,
      "enough": 3394,
      "change": 3395,
      "gracious": 3396,
      "CAL": 3397,
      "lieve": 3398,
      "Bo": 3399,
      "HOR": 3400,
      "fool": 3401,
      "vil": 3402,
      "我的": 3403,
      "ist": 3404,
      "ANGE": 3405,
      "ORD": 3406,
      "play": 3407,
      "GRE": 3408,
      "Clar": 3409,
      "ANGELO": 3410,
      "CU": 3411,
      "bt": 3412,
      "dow": 3413,
      "weep": 3414,
      "does": 3415,
      "ARINA": 3416,
      "got": 3417,
      "tress": 3418,
      "Clarence": 3419,
      "Du": 3420,
      "KATH": 3421,
      "ged": 3422,
      "ner": 3423,
      "ob": 3424,
      "ost": 3425,
      "oot": 3426,
      "pect": 3427,
      "cius": 3428,
      "please": 3429,
      "app": 3430,
      "talk": 3431,
      "KATHARINA": 3432,
      "At": 3433,
      "Even": 3434,
      "vill": 3435,
      "three": 3436,
      "ouch": 3437,
      "arms": 3438,
      "fect": 3439,
      "sure": 3440,
      "gentleman": 3441,
      "Marcius": 3442,
      "grief": 3443,
      "Up": 3444,
      "cousin": 3445,
      "sl": 3446,
      "sing": 3447,
      "hate": 3448,
      "same": 3449,
      "broke": 3450,
      "ROS": 3451,
      "fortune": 3452,
      "Pr": 3453,
      "gl": 3454,
      "pher": 3455,
      "went": 3456,
      "wish": 3457,
      "ESCAL": 3458,
      "country": 3459,
      "strong": 3460,
      "sleep": 3461,
      "dream": 3462,
      "ESCALUS": 3463,
      "gener": 3464,
      "pain": 3465,
      "sound": 3466,
      "vere": 3467,
      "的时候": 3468,
      "itor": 3469,
      "comfort": 3470,
      "tag": 3471,
      "thank": 3472,
      "anger": 3473,
      "deser": 3474,
      "content": 3475,
      "Hath": 3476,
      "Li": 3477,
      "rant": 3478,
      "wilt": 3479,
      "dost": 3480,
      "seem": 3481,
      "nature": 3482,
      "through": 3483,
      "AU": 3484,
      "DUCH": 3485,
      "grow": 3486,
      "hu": 3487,
      "ery": 3488,
      "ene": 3489,
      "ated": 3490,
      "offi": 3491,
      "learn": 3492,
      "lives": 3493,
      "unt": 3494,
      "appe": 3495,
      "Duke": 3496,
      "DUCHESS": 3497,
      "Would": 3498,
      "cal": 3499,
      "free": 3500,
      "hard": 3501,
      "ian": 3502,
      "kne": 3503,
      "wind": 3504,
      "indeed": 3505,
      "fire": 3506,
      "Ange": 3507,
      "business": 3508,
      "act": 3509,
      "arch": 3510,
      "sea": 3511,
      "ury": 3512,
      "rather": 3513,
      "swear": 3514,
      "urderer": 3515,
      "remember": 3516,
      "Angelo": 3517,
      "Te": 3518,
      "ather": 3519,
      "bit": 3520,
      "fight": 3521,
      "ide": 3522,
      "send": 3523,
      "知道": 3524,
      "told": 3525,
      "point": 3526,
      "plain": 3527,
      "CAMIL": 3528,
      "writ": 3529,
      "eseech": 3530,
      "false": 3531,
      "CAMILLO": 3532,
      ",'": 3533,
      "Are": 3534,
      "found": 3535,
      "hang": 3536,
      "sit": 3537,
      "spo": 3538,
      "water": 3539,
      "ye": 3540,
      "所以": 3541,
      "gether": 3542,
      "grave": 3543,
      "onder": 3544,
      "common": 3545,
      "Provost": 3546,
      "virt": 3547,
      ".'": 3548,
      "Sh": 3549,
      "Ty": 3550,
      "Thi": 3551,
      "TEN": 3552,
      "prom": 3553,
      "means": 3554,
      "hed": 3555,
      "reven": 3556,
      "lif": 3557,
      "ute": 3558,
      "cold": 3559,
      "used": 3560,
      "breath": 3561,
      "HORTEN": 3562,
      "vereign": 3563,
      "HORTENS": 3564,
      "FR": 3565,
      "IAR": 3566,
      "More": 3567,
      "Take": 3568,
      "igh": 3569,
      "不是": 3570,
      "ating": 3571,
      "within": 3572,
      "sovereign": 3573,
      "ush": 3574,
      "saw": 3575,
      "ices": 3576,
      "banish": 3577,
      "Upon": 3578,
      "HORTENSIO": 3579,
      "FRIAR": 3580,
      ".\"": 3581,
      "Al": 3582,
      "Con": 3583,
      "PTIS": 3584,
      "rd": 3585,
      "uf": 3586,
      "together": 3587,
      "deep": 3588,
      "acc": 3589,
      "command": 3590,
      "BAPTIS": 3591,
      "Third": 3592,
      "BAPTISTA": 3593,
      "AUT": 3594,
      "CUS": 3595,
      "COM": 3596,
      "LE": 3597,
      "YCUS": 3598,
      "ised": 3599,
      "lead": 3600,
      "left": 3601,
      "force": 3602,
      "enter": 3603,
      "holy": 3604,
      "says": 3605,
      "side": 3606,
      "OLYCUS": 3607,
      "break": 3608,
      "doubt": 3609,
      "AUTOLYCUS": 3610,
      "COMINIUS": 3611,
      "One": 3612,
      "born": 3613,
      "city": 3614,
      "seen": 3615,
      "become": 3616,
      "deli": 3617,
      "ours": 3618,
      "sold": 3619,
      "ARENCE": 3620,
      "shalt": 3621,
      "proud": 3622,
      "Therefore": 3623,
      "ield": 3624,
      "CLARENCE": 3625,
      "Some": 3626,
      "air": 3627,
      "kiss": 3628,
      "pati": 3629,
      "sil": 3630,
      "sister": 3631,
      "tent": 3632,
      "控制": 3633,
      "这样": 3634,
      "ator": 3635,
      "cial": 3636,
      "honest": 3637,
      "horse": 3638,
      "pherd": 3639,
      "BEN": 3640,
      "Gentle": 3641,
      "Kate": 3642,
      "NOR": 3643,
      "rance": 3644,
      "时间": 3645,
      "算法": 3646,
      "问题": 3647,
      "believe": 3648,
      "cho": 3649,
      "something": 3650,
      "days": 3651,
      "Clown": 3652,
      "VOLIO": 3653,
      "welcome": 3654,
      "BENVOLIO": 3655,
      "Lu": 3656,
      "Look": 3657,
      "MER": 3658,
      "PA": 3659,
      "PROS": 3660,
      "gor": 3661,
      "lf": 3662,
      "pity": 3663,
      "tit": 3664,
      "孩子": 3665,
      "oft": 3666,
      "always": 3667,
      "loss": 3668,
      "cons": 3669,
      "letter": 3670,
      "UMIO": 3671,
      "GRUMIO": 3672,
      "PERO": 3673,
      "PROSPERO": 3674,
      "Murderer": 3675,
      "ber": 3676,
      "sur": 3677,
      "alth": 3678,
      "ester": 3679,
      "suit": 3680,
      "CUTIO": 3681,
      "villain": 3682,
      "MERCUTIO": 3683,
      "Give": 3684,
      "Ju": 3685,
      "Re": 3686,
      "Were": 3687,
      "foul": 3688,
      "bel": 3689,
      "rich": 3690,
      "aint": 3691,
      "press": 3692,
      "teach": 3693,
      "gods": 3694,
      "worn": 3695,
      "trust": 3696,
      "LUCENTIO": 3697,
      "madam": 3698,
      "Servant": 3699,
      "POM": 3700,
      "Was": 3701,
      "cry": 3702,
      "past": 3703,
      "sad": 3704,
      "val": 3705,
      "wound": 3706,
      "yield": 3707,
      "世界": 3708,
      "often": 3709,
      "ows": 3710,
      "ween": 3711,
      "soon": 3712,
      "yours": 3713,
      "cks": 3714,
      "sue": 3715,
      "suf": 3716,
      "looks": 3717,
      "mistress": 3718,
      "LAND": 3719,
      "open": 3720,
      "subject": 3721,
      "POMP": 3722,
      "Can": 3723,
      "Did": 3724,
      "May": 3725,
      "beseech": 3726,
      "ew": 3727,
      "each": 3728,
      "lam": 3729,
      "oath": 3730,
      "pen": 3731,
      "然后": 3732,
      "temp": 3733,
      "known": 3734,
      "field": 3735,
      "took": 3736,
      "ULINA": 3737,
      "ground": 3738,
      "course": 3739,
      "gainst": 3740,
      "PAULINA": 3741,
      "Ro": 3742,
      "Say": 3743,
      "fly": 3744,
      "gro": 3745,
      "ior": 3746,
      "late": 3747,
      "pi": 3748,
      "tro": 3749,
      "ones": 3750,
      "dem": 3751,
      "key": 3752,
      "near": 3753,
      "faith": 3754,
      "bles": 3755,
      "tender": 3756,
      "GREMIO": 3757,
      "POMPEY": 3758,
      "IX": 3759,
      "NIA": 3760,
      "POL": 3761,
      "cla": 3762,
      "don": 3763,
      "sin": 3764,
      "朋友": 3765,
      "requ": 3766,
      "search": 3767,
      "sol": 3768,
      "uncle": 3769,
      "ENES": 3770,
      "lost": 3771,
      "gold": 3772,
      "ANT": 3773,
      "loved": 3774,
      "thinks": 3775,
      "heavy": 3776,
      "bloody": 3777,
      "strange": 3778,
      "UMNIA": 3779,
      "court": 3780,
      "自己的": 3781,
      "ength": 3782,
      "enger": 3783,
      "return": 3784,
      "VOLUMNIA": 3785,
      "England": 3786,
      "Tybal": 3787,
      "IXENES": 3788,
      "POLIXENES": 3789,
      "..": 3790,
      "BER": 3791,
      "Com": 3792,
      "GON": 3793,
      "MP": 3794,
      "fam": 3795,
      "ling": 3796,
      "但是": 3797,
      "wear": 3798,
      "essenger": 3799,
      "prof": 3800,
      "INGS": 3801,
      "save": 3802,
      "vingman": 3803,
      "haste": 3804,
      "traitor": 3805,
      "HAST": 3806,
      "purpose": 3807,
      "Servingman": 3808,
      "centio": 3809,
      "beauty": 3810,
      "Tybalt": 3811,
      "HASTINGS": 3812,
      "Ah": 3813,
      "Hast": 3814,
      "Pet": 3815,
      "RENCE": 3816,
      "farewell": 3817,
      "ga": 3818,
      "gs": 3819,
      "ied": 3820,
      "sight": 3821,
      "vol": 3822,
      "outh": 3823,
      "ench": 3824,
      "half": 3825,
      "alone": 3826,
      "dom": 3827,
      "unes": 3828,
      "fast": 3829,
      "posed": 3830,
      "These": 3831,
      "speed": 3832,
      "ched": 3833,
      "understand": 3834,
      "LAURENCE": 3835,
      "BY": 3836,
      "Mon": 3837,
      "bir": 3838,
      "dr": 3839,
      "dest": 3840,
      "danger": 3841,
      "food": 3842,
      "foot": 3843,
      "gy": 3844,
      "sy": 3845,
      "sword": 3846,
      "的事": 3847,
      "ina": 3848,
      "arti": 3849,
      "ats": 3850,
      "cept": 3851,
      "def": 3852,
      "majest": 3853,
      "woe": 3854,
      "mercy": 3855,
      "warrant": 3856,
      "quick": 3857,
      "struct": 3858,
      "draw": 3859,
      "spirit": 3860,
      "gorith": 3861,
      "Juli": 3862,
      "majesty": 3863,
      "00": 3864,
      "FF": 3865,
      "ID": 3866,
      "IFF": 3867,
      "eas": 3868,
      "焊接": 3869,
      "ities": 3870,
      "ham": 3871,
      "chang": 3872,
      "weak": 3873,
      "algorith": 3874,
      "cover": 3875,
      "oney": 3876,
      "suc": 3877,
      "Though": 3878,
      "worthy": 3879,
      "cient": 3880,
      "marry": 3881,
      "UMBER": 3882,
      "between": 3883,
      "thoughts": 3884,
      "THUMBER": 3885,
      "justice": 3886,
      "CLIFF": 3887,
      "straight": 3888,
      "NORTHUMBER": 3889,
      "NORTHUMBERLAND": 3890,
      "Sign": 3891,
      "Whi": 3892,
      "athe": 3893,
      "ail": 3894,
      "dden": 3895,
      "fet": 3896,
      "ls": 3897,
      "touch": 3898,
      "van": 3899,
      "ides": 3900,
      "worth": 3901,
      "dire": 3902,
      "report": 3903,
      "Tell": 3904,
      "Cor": 3905,
      "Jo": 3906,
      "abo": 3907,
      "fit": 3908,
      "fur": 3909,
      "hum": 3910,
      "ima": 3911,
      "knew": 3912,
      "lou": 3913,
      "path": 3914,
      "won": 3915,
      "watch": 3916,
      "wonder": 3917,
      "大家": 3918,
      "轨迹": 3919,
      "那么": 3920,
      "需要": 3921,
      "toward": 3922,
      "ceed": 3923,
      "already": 3924,
      "ets": 3925,
      "order": 3926,
      "move": 3927,
      "comple": 3928,
      "bold": 3929,
      "ANNE": 3930,
      "women": 3931,
      "Because": 3932,
      "counter": 3933,
      "brought": 3934,
      "wenty": 3935,
      "Cam": 3936,
      "Clif": 3937,
      "Had": 3938,
      "PR": 3939,
      "bound": 3940,
      "obe": 3941,
      "ses": 3942,
      "sch": 3943,
      "wall": 3944,
      "现在": 3945,
      "ined": 3946,
      "heir": 3947,
      "itself": 3948,
      "ash": 3949,
      "oose": 3950,
      "ends": 3951,
      "quar": 3952,
      "pluck": 3953,
      "married": 3954,
      "INCE": 3955,
      "grand": 3956,
      "service": 3957,
      "charge": 3958,
      "company": 3959,
      "Should": 3960,
      "Juliet": 3961,
      "PRINCE": 3962,
      "Bol": 3963,
      "Farewell": 3964,
      "Gre": 3965,
      "Me": 3966,
      "bow": 3967,
      "cri": 3968,
      "mus": 3969,
      "pra": 3970,
      "ris": 3971,
      "sk": 3972,
      "wise": 3973,
      "有的": 3974,
      "这些": 3975,
      "ons": 3976,
      "ingbroke": 3977,
      "tive": 3978,
      "lose": 3979,
      "thyself": 3980,
      "short": 3981,
      "sign": 3982,
      "count": 3983,
      "liege": 3984,
      "Like": 3985,
      "Signior": 3986,
      "Clifford": 3987,
      "Bolingbroke": 3988,
      "Away": 3989,
      "bat": 3990,
      "lar": 3991,
      "pie": 3992,
      "sworn": 3993,
      "ual": 3994,
      "umber": 3995,
      "不要": 3996,
      "通过": 3997,
      "having": 3998,
      "beat": 3999,
      "ket": 4000,
      "til": 4001,
      "next": 4002,
      "ions": 4003,
      "ility": 4004,
      "dio": 4005,
      "resp": 4006,
      "strength": 4007,
      "Whose": 4008,
      "See": 4009,
      "pair": 4010,
      "hours": 4011,
      "ALO": 4012,
      "De": 4013,
      "Sen": 4014,
      "fol": 4015,
      "ges": 4016,
      "harm": 4017,
      "murder": 4018,
      "nurse": 4019,
      "twenty": 4020,
      "ump": 4021,
      "一种": 4022,
      "非常": 4023,
      "ished": 4024,
      "top": 4025,
      "met": 4026,
      "forget": 4027,
      "devil": 4028,
      "entreat": 4029,
      "sup": 4030,
      "bot": 4031,
      "someone": 4032,
      "aster": 4033,
      "friar": 4034,
      "miss": 4035,
      "grant": 4036,
      "mio": 4037,
      "Pray": 4038,
      "deliver": 4039,
      "France": 4040,
      "dro": 4041,
      "dam": 4042,
      "ecut": 4043,
      "five": 4044,
      "ped": 4045,
      "东西": 4046,
      "关键": 4047,
      "路径": 4048,
      "身体": 4049,
      "youth": 4050,
      "receive": 4051,
      "chance": 4052,
      "ced": 4053,
      "som": 4054,
      "hot": 4055,
      "doing": 4056,
      "main": 4057,
      "fault": 4058,
      "consu": 4059,
      "case": 4060,
      "themselves": 4061,
      "mark": 4062,
      "resol": 4063,
      "trem": 4064,
      "slain": 4065,
      "general": 4066,
      "human": 4067,
      "title": 4068,
      "Af": 4069,
      "FL": 4070,
      "FID": 4071,
      "Lo": 4072,
      "Messenger": 4073,
      "big": 4074,
      "black": 4075,
      "cro": 4076,
      "dut": 4077,
      "dish": 4078,
      "sat": 4079,
      "ub": 4080,
      "wh": 4081,
      "woo": 4082,
      "year": 4083,
      "改变": 4084,
      "widow": 4085,
      "fection": 4086,
      "ORIZ": 4087,
      "knows": 4088,
      "execut": 4089,
      "ical": 4090,
      "serve": 4091,
      "AUFID": 4092,
      "enemy": 4093,
      "school": 4094,
      "FLORIZ": 4095,
      "AUFIDIUS": 4096,
      "FLORIZEL": 4097,
      "Clau": 4098,
      "Mad": 4099,
      "SE": 4100,
      "aw": 4101,
      "bour": 4102,
      "either": 4103,
      "jud": 4104,
      "mit": 4105,
      "wast": 4106,
      "人的": 4107,
      "优化": 4108,
      "：“": 4109,
      "rew": 4110,
      "vel": 4111,
      "also": 4112,
      "loving": 4113,
      "ION": 4114,
      "mock": 4115,
      "poss": 4116,
      "coming": 4117,
      "ular": 4118,
      "safe": 4119,
      "pleasure": 4120,
      "Being": 4121,
      "desire": 4122,
      "appear": 4123,
      "revenge": 4124,
      "Claudio": 4125,
      "!'": 4126,
      "Against": 4127,
      "bes": 4128,
      "burn": 4129,
      "cus": 4130,
      "four": 4131,
      "fun": 4132,
      "hood": 4133,
      "money": 4134,
      "ni": 4135,
      "pay": 4136,
      "sla": 4137,
      "stoo": 4138,
      "ught": 4139,
      "vid": 4140,
      "发现": 4141,
      "搜索": 4142,
      "riage": 4143,
      "ady": 4144,
      "sudden": 4145,
      "ques": 4146,
      "Thus": 4147,
      "ERS": 4148,
      "canst": 4149,
      "sake": 4150,
      "sick": 4151,
      "hearts": 4152,
      "counsel": 4153,
      "stands": 4154,
      "certain": 4155,
      "confess": 4156,
      "Gentleman": 4157,
      "suffer": 4158,
      "Senator": 4159,
      "duty": 4160,
      "Madam": 4161,
      "CIUS": 4162,
      "Cap": 4163,
      "Glou": 4164,
      "Most": 4165,
      "Master": 4166,
      "bad": 4167,
      "bur": 4168,
      "creat": 4169,
      "cester": 4170,
      "fra": 4171,
      "hur": 4172,
      "lan": 4173,
      "pet": 4174,
      "ua": 4175,
      "机器": 4176,
      "hell": 4177,
      "coll": 4178,
      "loves": 4179,
      "post": 4180,
      "illo": 4181,
      "ilt": 4182,
      "sim": 4183,
      "angu": 4184,
      "action": 4185,
      "voices": 4186,
      "mile": 4187,
      "Shepherd": 4188,
      "MARCIUS": 4189,
      "BAST": 4190,
      "tague": 4191,
      "claim": 4192,
      "Montague": 4193,
      "SEBAST": 4194,
      "SEBASTIAN": 4195,
      "MON": 4196,
      "OW": 4197,
      "Till": 4198,
      "dif": 4199,
      "gave": 4200,
      "hind": 4201,
      "ici": 4202,
      "tor": 4203,
      "ues": 4204,
      "vour": 4205,
      "wal": 4206,
      "。”": 4207,
      "一天": 4208,
      "幸福": 4209,
      "ingham": 4210,
      "lect": 4211,
      "behold": 4212,
      "eds": 4213,
      "lic": 4214,
      "ures": 4215,
      "table": 4216,
      "ults": 4217,
      "cast": 4218,
      "ils": 4219,
      "ured": 4220,
      "sible": 4221,
      "marriage": 4222,
      "fearful": 4223,
      "given": 4224,
      "import": 4225,
      "further": 4226,
      "Camillo": 4227,
      "folk": 4228,
      "Buck": 4229,
      "BION": 4230,
      "DEL": 4231,
      "Vol": 4232,
      "ade": 4233,
      "cc": 4234,
      "ger": 4235,
      "gir": 4236,
      "ial": 4237,
      "pes": 4238,
      "ring": 4239,
      "wret": 4240,
      "协同": 4241,
      "特别": 4242,
      "重要": 4243,
      "ines": 4244,
      "attend": 4245,
      "stor": 4246,
      "health": 4247,
      "bell": 4248,
      "lot": 4249,
      "sum": 4250,
      "motion": 4251,
      "mortal": 4252,
      "morning": 4253,
      "tem": 4254,
      "tale": 4255,
      "ctor": 4256,
      "pret": 4257,
      "flow": 4258,
      "flatter": 4259,
      "begin": 4260,
      "small": 4261,
      "Hastings": 4262,
      "success": 4263,
      "Gloucester": 4264,
      "Buckingham": 4265,
      "BIONDEL": 4266,
      "BIONDELLO": 4267,
      "Since": 4268,
      "cu": 4269,
      "cred": 4270,
      "eat": 4271,
      "mouth": 4272,
      "spr": 4273,
      "uous": 4274,
      "whe": 4275,
      "一些": 4276,
      "一样": 4277,
      "很多": 4278,
      "规划": 4279,
      "town": 4280,
      "sec": 4281,
      "forward": 4282,
      "withal": 4283,
      "rah": 4284,
      "shar": 4285,
      "died": 4286,
      "prop": 4287,
      "gentlemen": 4288,
      "Norfolk": 4289,
      "highness": 4290,
      "strike": 4291,
      "AUM": 4292,
      "Ca": 4293,
      "Ha": 4294,
      "HER": 4295,
      "OP": 4296,
      "Pe": 4297,
      "Po": 4298,
      "bar": 4299,
      "ding": 4300,
      "emp": 4301,
      "langu": 4302,
      "rough": 4303,
      "个人": 4304,
      "开始": 4305,
      "是一个": 4306,
      "约束": 4307,
      "运动": 4308,
      "thri": 4309,
      "tom": 4310,
      "start": 4311,
      "least": 4312,
      "wixt": 4313,
      "lips": 4314,
      "ution": 4315,
      "along": 4316,
      "goes": 4317,
      "ERLE": 4318,
      "proble": 4319,
      "seek": 4320,
      "Wel": 4321,
      "fic": 4322,
      "didst": 4323,
      "plan": 4324,
      "pale": 4325,
      "ONIO": 4326,
      "heavens": 4327,
      "contro": 4328,
      "cheer": 4329,
      "quiet": 4330,
      "brave": 4331,
      "promise": 4332,
      "Lucentio": 4333,
      "Roman": 4334,
      "ANTONIO": 4335,
      "respond": 4336,
      "possess": 4337,
      "function": 4338,
      "AUMERLE": 4339,
      "Bian": 4340,
      "Lan": 4341,
      "ZALO": 4342,
      "bor": 4343,
      "eth": 4344,
      "eper": 4345,
      "pit": 4346,
      "win": 4347,
      "wis": 4348,
      "wed": 4349,
      "实现": 4350,
      "结构": 4351,
      "都是": 4352,
      "enem": 4353,
      "issue": 4354,
      "stir": 4355,
      "held": 4356,
      "living": 4357,
      "ural": 4358,
      "iful": 4359,
      "caster": 4360,
      "dies": 4361,
      "whole": 4362,
      "我们的": 4363,
      "breathe": 4364,
      "void": 4365,
      "Marry": 4366,
      "needs": 4367,
      "souls": 4368,
      "ledge": 4369,
      "fully": 4370,
      "correspond": 4371,
      "close": 4372,
      "office": 4373,
      "patience": 4374,
      "GONZALO": 4375,
      "algorithm": 4376,
      "question": 4377,
      "Lancaster": 4378,
      "enemies": 4379,
      "Ear": 4380,
      "Lady": 4381,
      "Make": 4382,
      "Pom": 4383,
      "SA": 4384,
      "Tran": 4385,
      "Ye": 4386,
      "da": 4387,
      "dare": 4388,
      "ek": 4389,
      "gg": 4390,
      "gates": 4391,
      "ancient": 4392,
      "org": 4393,
      "stant": 4394,
      "reali": 4395,
      "lea": 4396,
      "cell": 4397,
      "uring": 4398,
      "peak": 4399,
      "ended": 4400,
      "poison": 4401,
      "thanks": 4402,
      "ations": 4403,
      "voice": 4404,
      "scar": 4405,
      "的事情": 4406,
      "satis": 4407,
      "Bianca": 4408,
      "Ar": 4409,
      "CLAU": 4410,
      "DIO": 4411,
      "bs": 4412,
      "brow": 4413,
      "emb": 4414,
      "fill": 4415,
      "ick": 4416,
      "low": 4417,
      "sal": 4418,
      "ually": 4419,
      "别人": 4420,
      "可能": 4421,
      "应该": 4422,
      "每天": 4423,
      "系统": 4424,
      "throw": 4425,
      "second": 4426,
      "oward": 4427,
      "almost": 4428,
      "neither": 4429,
      "consent": 4430,
      "moon": 4431,
      "ulti": 4432,
      "bosom": 4433,
      "seems": 4434,
      "appro": 4435,
      "merry": 4436,
      "一个人": 4437,
      "join": 4438,
      "warm": 4439,
      "everyone": 4440,
      "grie": 4441,
      "buy": 4442,
      "MIONE": 4443,
      "Alas": 4444,
      "MPC": 4445,
      "Petru": 4446,
      "CLIFFORD": 4447,
      "above": 4448,
      "After": 4449,
      "HERMIONE": 4450,
      "CLAUDIO": 4451,
      "Auf": 4452,
      "Call": 4453,
      "DA": 4454,
      "IRAN": 4455,
      "JO": 4456,
      "Le": 4457,
      "LORD": 4458,
      "MIRAN": 4459,
      "Per": 4460,
      "Par": 4461,
      "Yes": 4462,
      "aking": 4463,
      "bunes": 4464,
      "cing": 4465,
      "curse": 4466,
      "dark": 4467,
      "fir": 4468,
      "iers": 4469,
      "od": 4470,
      "occ": 4471,
      "pal": 4472,
      "soft": 4473,
      "test": 4474,
      "twas": 4475,
      "twere": 4476,
      "wd": 4477,
      "不会": 4478,
      "为什么": 4479,
      "就会": 4480,
      "怎么": 4481,
      "intell": 4482,
      "instru": 4483,
      "ative": 4484,
      "liber": 4485,
      "ality": 4486,
      "ently": 4487,
      "add": 4488,
      "col": 4489,
      "race": 4490,
      "rage": 4491,
      "idius": 4492,
      "going": 4493,
      "worse": 4494,
      "speech": 4495,
      "chio": 4496,
      "Before": 4497,
      "others": 4498,
      "breast": 4499,
      "trou": 4500,
      "called": 4501,
      "foe": 4502,
      "fles": 4503,
      "clou": 4504,
      "sense": 4505,
      "garet": 4506,
      "possible": 4507,
      "virtue": 4508,
      "large": 4509,
      "机器人": 4510,
      "language": 4511,
      "Tranio": 4512,
      "Petruchio": 4513,
      "Aufidius": 4514,
      "MIRANDA": 4515,
      "Ga": 4516,
      "HN": 4517,
      "Ke": 4518,
      "SON": 4519,
      "Speak": 4520,
      "avoid": 4521,
      "gue": 4522,
      "lst": 4523,
      "mas": 4524,
      "mond": 4525,
      "ude": 4526,
      "vest": 4527,
      "zed": 4528,
      "对应": 4529,
      "小朋友": 4530,
      "空间": 4531,
      "老师": 4532,
      "ency": 4533,
      "cher": 4534,
      "ooth": 4535,
      "ourselves": 4536,
      "allow": 4537,
      "vern": 4538,
      "usur": 4539,
      "ider": 4540,
      "prin": 4541,
      "kings": 4542,
      "bless": 4543,
      "knowledge": 4544,
      "exam": 4545,
      "respect": 4546,
      "intro": 4547,
      "offer": 4548,
      "Hereford": 4549,
      "spoke": 4550,
      "request": 4551,
      "birth": 4552,
      "dangerous": 4553,
      "battle": 4554,
      "piece": 4555,
      "JOHN": 4556,
      "Happ": 4557,
      "RR": 4558,
      "Such": 4559,
      "Tower": 4560,
      "aven": 4561,
      "bla": 4562,
      "dar": 4563,
      "dri": 4564,
      "dread": 4565,
      "fin": 4566,
      "frown": 4567,
      "gall": 4568,
      "har": 4569,
      "iol": 4570,
      "lis": 4571,
      "ned": 4572,
      "ping": 4573,
      "pite": 4574,
      "喜欢": 4575,
      "故事": 4576,
      "anus": 4577,
      "arry": 4578,
      "reg": 4579,
      "behind": 4580,
      "choose": 4581,
      "few": 4582,
      "feast": 4583,
      "ung": 4584,
      "loy": 4585,
      "Their": 4586,
      "moved": 4587,
      "tage": 4588,
      "thence": 4589,
      "truly": 4590,
      "sons": 4591,
      "acle": 4592,
      "base": 4593,
      "servant": 4594,
      "Margaret": 4595,
      "contin": 4596,
      "Richmond": 4597,
      "如果你": 4598,
      "books": 4599,
      "visit": 4600,
      "writing": 4601,
      "soldiers": 4602,
      "wounds": 4603,
      "Coriol": 4604,
      "quarrel": 4605,
      "关键词": 4606,
      "Welcome": 4607,
      "Coriolanus": 4608,
      "AS": 4609,
      "Lond": 4610,
      "Must": 4611,
      "Tru": 4612,
      "TES": 4613,
      "Wi": 4614,
      "aid": 4615,
      "ack": 4616,
      "ben": 4617,
      "ked": 4618,
      "mid": 4619,
      "swi": 4620,
      "如何": 4621,
      "工作": 4622,
      "机械": 4623,
      "觉得": 4624,
      "thin": 4625,
      "inese": 4626,
      "llo": 4627,
      "stain": 4628,
      "step": 4629,
      "lip": 4630,
      "dep": 4631,
      "urch": 4632,
      "making": 4633,
      "ney": 4634,
      "shown": 4635,
      "div": 4636,
      "sigh": 4637,
      "CATES": 4638,
      "vile": 4639,
      "resh": 4640,
      "reading": 4641,
      "partic": 4642,
      "presence": 4643,
      "steel": 4644,
      "deny": 4645,
      "Unless": 4646,
      "laught": 4647,
      "bride": 4648,
      "brief": 4649,
      "Chinese": 4650,
      "bitter": 4651,
      "consul": 4652,
      "intellig": 4653,
      "London": 4654,
      "CATESBY": 4655,
      "Bap": 4656,
      "Ge": 4657,
      "Saint": 4658,
      "Tho": 4659,
      "Water": 4660,
      "ased": 4661,
      "cord": 4662,
      "cried": 4663,
      "dru": 4664,
      "kno": 4665,
      "line": 4666,
      "multi": 4667,
      "nam": 4668,
      "phy": 4669,
      "vow": 4670,
      "vali": 4671,
      "wain": 4672,
      "wars": 4673,
      "中的": 4674,
      "了一": 4675,
      "成为": 4676,
      "这种": 4677,
      "thor": 4678,
      "inno": 4679,
      "wild": 4680,
      "deter": 4681,
      "als": 4682,
      "worship": 4683,
      "ately": 4684,
      "Whom": 4685,
      "heads": 4686,
      "GREY": 4687,
      "deeds": 4688,
      "shows": 4689,
      "mighty": 4690,
      "throne": 4691,
      "chamber": 4692,
      "month": 4693,
      "witness": 4694,
      "Both": 4695,
      "drink": 4696,
      "quickly": 4697,
      "complex": 4698,
      "music": 4699,
      "simple": 4700,
      "Paris": 4701,
      "机械臂": 4702,
      "particular": 4703,
      "Baptis": 4704,
      "BIAN": 4705,
      "Ere": 4706,
      "Isa": 4707,
      "Lest": 4708,
      "Mer": 4709,
      "Mis": 4710,
      "Pa": 4711,
      "RIV": 4712,
      "Yang": 4713,
      "bas": 4714,
      "bury": 4715,
      "cru": 4716,
      "drun": 4717,
      "fan": 4718,
      "ile": 4719,
      "match": 4720,
      "wings": 4721,
      "一起": 4722,
      "复杂": 4723,
      "方式": 4724,
      "研究": 4725,
      "速度": 4726,
      "orge": 4727,
      "ens": 4728,
      "ona": 4729,
      "real": 4730,
      "rever": 4731,
      "sever": 4732,
      "room": 4733,
      "asion": 4734,
      "lding": 4735,
      "hide": 4736,
      "adv": 4737,
      "mast": 4738,
      "favour": 4739,
      "wash": 4740,
      "govern": 4741,
      "cience": 4742,
      "pleas": 4743,
      "six": 4744,
      "exper": 4745,
      "viol": 4746,
      "precious": 4747,
      "greater": 4748,
      "lived": 4749,
      "longer": 4750,
      "prayers": 4751,
      "courage": 4752,
      "BAL": 4753,
      "princely": 4754,
      "BRA": 4755,
      "position": 4756,
      "uff": 4757,
      "letters": 4758,
      "tempt": 4759,
      "family": 4760,
      "syste": 4761,
      "easy": 4762,
      "changed": 4763,
      "vantage": 4764,
      "umph": 4765,
      "dishon": 4766,
      "white": 4767,
      "flesh": 4768,
      "laughter": 4769,
      "George": 4770,
      "Baptista": 4771,
      "BIANCA": 4772,
      "RIVERS": 4773,
      "BOW": 4774,
      "GAU": 4775,
      "Hold": 4776,
      "cr": 4777,
      "ctive": 4778,
      "coward": 4779,
      "kins": 4780,
      "moun": 4781,
      "nay": 4782,
      "ron": 4783,
      "winter": 4784,
      "内向": 4785,
      "已经": 4786,
      "的一": 4787,
      "inform": 4788,
      "encounter": 4789,
      "hair": 4790,
      "roo": 4791,
      "road": 4792,
      "lock": 4793,
      "faults": 4794,
      "willing": 4795,
      "supp": 4796,
      "ilty": 4797,
      "bling": 4798,
      "early": 4799,
      "ELBOW": 4800,
      "orten": 4801,
      "scorn": 4802,
      "triumph": 4803,
      "North": 4804,
      "natural": 4805,
      "lawful": 4806,
      "presently": 4807,
      "stop": 4808,
      "Stand": 4809,
      "lament": 4810,
      "fetch": 4811,
      "cross": 4812,
      "slave": 4813,
      "girl": 4814,
      "clouds": 4815,
      "valiant": 4816,
      "GAUNT": 4817,
      "GUE": 4818,
      "Hark": 4819,
      "Horten": 4820,
      "Just": 4821,
      "Ox": 4822,
      "Out": 4823,
      "TY": 4824,
      "ele": 4825,
      "fil": 4826,
      "fond": 4827,
      "fresh": 4828,
      "ging": 4829,
      "hund": 4830,
      "kn": 4831,
      "mal": 4832,
      "patch": 4833,
      "sper": 4834,
      "zation": 4835,
      "之后": 4836,
      "关节": 4837,
      "的是": 4838,
      "的时间": 4839,
      "这是": 4840,
      "enjoy": 4841,
      "stre": 4842,
      "story": 4843,
      "medi": 4844,
      "metho": 4845,
      "measure": 4846,
      "seven": 4847,
      "ley": 4848,
      "depart": 4849,
      "ties": 4850,
      "until": 4851,
      "mali": 4852,
      "fact": 4853,
      "shadow": 4854,
      "comfor": 4855,
      "perform": 4856,
      "worst": 4857,
      "aked": 4858,
      "sio": 4859,
      "angry": 4860,
      "affection": 4861,
      "write": 4862,
      "prithee": 4863,
      "tribunes": 4864,
      "sentence": 4865,
      "TAGUE": 4866,
      "subjects": 4867,
      "execution": 4868,
      "MONTAGUE": 4869,
      "walk": 4870,
      "pretty": 4871,
      "flowers": 4872,
      "secret": 4873,
      "Peace": 4874,
      "Hortensio": 4875,
      "hundred": 4876,
      "AT": 4877,
      "Am": 4878,
      "Ex": 4879,
      "Kath": 4880,
      "Too": 4881,
      "cam": 4882,
      "corn": 4883,
      "dle": 4884,
      "due": 4885,
      "ease": 4886,
      "fat": 4887,
      "fish": 4888,
      "glad": 4889,
      "lish": 4890,
      "mut": 4891,
      "ph": 4892,
      "ror": 4893,
      "sour": 4894,
      "slaughter": 4895,
      "tune": 4896,
      "其实": 4897,
      "可是": 4898,
      "方法": 4899,
      "环境": 4900,
      "甚至": 4901,
      "自然": 4902,
      "解决": 4903,
      "里面": 4904,
      "食物": 4905,
      "thir": 4906,
      "thither": 4907,
      "incl": 4908,
      "arina": 4909,
      "stu": 4910,
      "hemi": 4911,
      "lease": 4912,
      "beast": 4913,
      "church": 4914,
      "aside": 4915,
      "ooking": 4916,
      "rid": 4917,
      "ety": 4918,
      "eter": 4919,
      "feit": 4920,
      "pey": 4921,
      "tear": 4922,
      "Think": 4923,
      "god": 4924,
      "cap": 4925,
      "kingdom": 4926,
      "process": 4927,
      "proceed": 4928,
      "fie": 4929,
      "fied": 4930,
      "fici": 4931,
      "spent": 4932,
      "vict": 4933,
      "view": 4934,
      "bawd": 4935,
      "hearing": 4936,
      "lands": 4937,
      "author": 4938,
      "happiness": 4939,
      "Doth": 4940,
      "Stay": 4941,
      "Bohemi": 4942,
      "glass": 4943,
      "golden": 4944,
      "defend": 4945,
      "important": 4946,
      "whether": 4947,
      "Pompey": 4948,
      "Yea": 4949,
      "benef": 4950,
      "experi": 4951,
      "Northumber": 4952,
      "Oxford": 4953,
      "Katharina": 4954,
      "?\"": 4955,
      "Au": 4956,
      "DI": 4957,
      "Fri": 4958,
      "GIL": 4959,
      "IEL": 4960,
      "Pri": 4961,
      "RGIL": 4962,
      "Swe": 4963,
      "Stop": 4964,
      "Wor": 4965,
      "ale": 4966,
      "awhile": 4967,
      "bly": 4968,
      "bones": 4969,
      "din": 4970,
      "eks": 4971,
      "fle": 4972,
      "fled": 4973,
      "mour": 4974,
      "ny": 4975,
      "round": 4976,
      "sus": 4977,
      "sort": 4978,
      "sland": 4979,
      "ume": 4980,
      "你会": 4981,
      "分享": 4982,
      "妈妈": 4983,
      "生命": 4984,
      "目标": 4985,
      "看到": 4986,
      "能力": 4987,
      "还是": 4988,
      "ints": 4989,
      "tol": 4990,
      "stit": 4991,
      "noise": 4992,
      "vey": 4993,
      "ches": 4994,
      "robot": 4995,
      "welding": 4996,
      "door": 4997,
      "ament": 4998,
      "tech": 4999,
      "complain": 5000,
      "ERD": 5001,
      "goodly": 5002,
      "proof": 5003,
      "blows": 5004,
      "astard": 5005,
      "womb": 5006,
      "trump": 5007,
      "hadst": 5008,
      "whence": 5009,
      "spend": 5010,
      "sport": 5011,
      "plant": 5012,
      "account": 5013,
      "desper": 5014,
      "offence": 5015,
      "mild": 5016,
      "cles": 5017,
      "guard": 5018,
      "guilty": 5019,
      "quire": 5020,
      "wert": 5021,
      "clear": 5022,
      "meaning": 5023,
      "VIRGIL": 5024,
      "PERDI": 5025,
      "English": 5026,
      "virtuous": 5027,
      "soldier": 5028,
      "patient": 5029,
      "While": 5030,
      "obedi": 5031,
      "received": 5032,
      "summer": 5033,
      "运动学": 5034,
      "planning": 5035,
      "realize": 5036,
      "knock": 5037,
      "Paul": 5038,
      "Bohemia": 5039,
      "Northumberland": 5040,
      "Sweet": 5041,
      "VIRGILIA": 5042,
      "PERDITA": 5043,
      "Bl": 5044,
      "Every": 5045,
      "LY": 5046,
      "Men": 5047,
      "Plan": 5048,
      "SLY": 5049,
      "Ver": 5050,
      "Watch": 5051,
      "bright": 5052,
      "cir": 5053,
      "dge": 5054,
      "eag": 5055,
      "gif": 5056,
      "ker": 5057,
      "mir": 5058,
      "mill": 5059,
      "rand": 5060,
      "sca": 5061,
      "smile": 5062,
      "wench": 5063,
      "yond": 5064,
      "zen": 5065,
      "一次": 5066,
      "不知道": 5067,
      "健康": 5068,
      "出来": 5069,
      "只有": 5070,
      "同时": 5071,
      "好的": 5072,
      "就像": 5073,
      "快乐": 5074,
      "能够": 5075,
      "enet": 5076,
      "isure": 5077,
      "aries": 5078,
      "ators": 5079,
      "ony": 5080,
      "reck": 5081,
      "reign": 5082,
      "remain": 5083,
      "sell": 5084,
      "leisure": 5085,
      "note": 5086,
      "del": 5087,
      "sole": 5088,
      "soci": 5089,
      "timi": 5090,
      "hop": 5091,
      "dog": 5092,
      "among": 5093,
      "neck": 5094,
      "rust": 5095,
      "cted": 5096,
      "shed": 5097,
      "akes": 5098,
      "saying": 5099,
      "Heaven": 5100,
      "effect": 5101,
      "ignor": 5102,
      "trans": 5103,
      "ladies": 5104,
      "kindness": 5105,
      "MARIAN": 5106,
      "treason": 5107,
      "slew": 5108,
      "viron": 5109,
      "laugh": 5110,
      "asked": 5111,
      "greet": 5112,
      "weeping": 5113,
      "obst": 5114,
      "deserved": 5115,
      "knee": 5116,
      "kneel": 5117,
      "banishment": 5118,
      "silence": 5119,
      "towards": 5120,
      "sky": 5121,
      "differ": 5122,
      "temper": 5123,
      "wisdom": 5124,
      "trouble": 5125,
      "Isabel": 5126,
      "MARIANA": 5127,
      "10": 5128,
      "Bes": 5129,
      "Co": 5130,
      "Fa": 5131,
      "Gru": 5132,
      "Pad": 5133,
      "PAR": 5134,
      "bb": 5135,
      "cen": 5136,
      "cure": 5137,
      "citizen": 5138,
      "doo": 5139,
      "dry": 5140,
      "evil": 5141,
      "fing": 5142,
      "fru": 5143,
      "ia": 5144,
      "pier": 5145,
      "vain": 5146,
      "一点": 5147,
      "不能": 5148,
      "动态": 5149,
      "多机器人": 5150,
      "大的": 5151,
      "最后": 5152,
      "模型": 5153,
      "真正": 5154,
      "社会": 5155,
      "老人": 5156,
      "那个": 5157,
      "ering": 5158,
      "eness": 5159,
      "army": 5160,
      "arri": 5161,
      "stone": 5162,
      "assa": 5163,
      "forbid": 5164,
      "forgot": 5165,
      "nder": 5166,
      "kept": 5167,
      "host": 5168,
      "necess": 5169,
      "neigh": 5170,
      "ters": 5171,
      "herself": 5172,
      "conce": 5173,
      "contr": 5174,
      "condem": 5175,
      "quo": 5176,
      "quite": 5177,
      "iles": 5178,
      "shepherd": 5179,
      "blow": 5180,
      "wouldst": 5181,
      "express": 5182,
      "spur": 5183,
      "speaks": 5184,
      "march": 5185,
      "Offi": 5186,
      "flower": 5187,
      "optimi": 5188,
      "Sirrah": 5189,
      "cursed": 5190,
      "Once": 5191,
      "prisoner": 5192,
      "dreams": 5193,
      "entertain": 5194,
      "choice": 5195,
      "conscience": 5196,
      "article": 5197,
      "imag": 5198,
      "obey": 5199,
      "Gremio": 5200,
      "stood": 5201,
      "vided": 5202,
      "control": 5203,
      "organs": 5204,
      "liberty": 5205,
      "dishonour": 5206,
      "Plantag": 5207,
      "Grumio": 5208,
      "Padua": 5209,
      "PARIS": 5210,
      ":'": 5211,
      "Ab": 5212,
      "Dis": 5213,
      "Fear": 5214,
      "Ped": 5215,
      "Please": 5216,
      "SEO": 5217,
      "ded": 5218,
      "fine": 5219,
      "grown": 5220,
      "ju": 5221,
      "kin": 5222,
      "ption": 5223,
      "pub": 5224,
      "rise": 5225,
      "ton": 5226,
      "vail": 5227,
      "一下": 5228,
      "也是": 5229,
      "人们": 5230,
      "件事": 5231,
      "任何": 5232,
      "关系": 5233,
      "只是": 5234,
      "基于": 5235,
      "实时": 5236,
      "想要": 5237,
      "文章": 5238,
      "爱情": 5239,
      "的东西": 5240,
      "让你": 5241,
      "atri": 5242,
      "star": 5243,
      "seat": 5244,
      "wice": 5245,
      "ires": 5246,
      "deal": 5247,
      "thout": 5248,
      "unts": 5249,
      "mach": 5250,
      "manner": 5251,
      "conqu": 5252,
      "constant": 5253,
      "laid": 5254,
      "teeth": 5255,
      "takes": 5256,
      "venge": 5257,
      "prosper": 5258,
      "ability": 5259,
      "els": 5260,
      "expect": 5261,
      "spit": 5262,
      "space": 5263,
      "dist": 5264,
      "dispatch": 5265,
      "fright": 5266,
      "vious": 5267,
      "prepar": 5268,
      "party": 5269,
      "PETER": 5270,
      "pride": 5271,
      "stead": 5272,
      "banished": 5273,
      "Citizens": 5274,
      "double": 5275,
      "relation": 5276,
      "beautiful": 5277,
      "Chris": 5278,
      "knees": 5279,
      "consider": 5280,
      "image": 5281,
      "hurt": 5282,
      "spring": 5283,
      "problem": 5284,
      "firm": 5285,
      "Gaunt": 5286,
      "example": 5287,
      "Without": 5288,
      "swift": 5289,
      "drunk": 5290,
      "masters": 5291,
      "victory": 5292,
      "benefit": 5293,
      "slander": 5294,
      "Plantagenet": 5295,
      "public": 5296,
      "!--": 5297,
      "Ac": 5298,
      "Could": 5299,
      "Cates": 5300,
      "Di": 5301,
      "DOR": 5302,
      "En": 5303,
      "Ind": 5304,
      "LAR": 5305,
      "TIUS": 5306,
      "WIS": 5307,
      "XI": 5308,
      "bastard": 5309,
      "cis": 5310,
      "dance": 5311,
      "drown": 5312,
      "gment": 5313,
      "lust": 5314,
      "looking": 5315,
      "ok": 5316,
      "pun": 5317,
      "rate": 5318,
      "ulet": 5319,
      "wing": 5320,
      "——": 5321,
      "你们": 5322,
      "感觉": 5323,
      "排名": 5324,
      "是什么": 5325,
      "真的": 5326,
      "跟踪": 5327,
      "进行": 5328,
      "threat": 5329,
      "iny": 5330,
      "ining": 5331,
      "inius": 5332,
      "ences": 5333,
      "environ": 5334,
      "really": 5335,
      "seal": 5336,
      "hap": 5337,
      "bears": 5338,
      "liest": 5339,
      "weary": 5340,
      "yourselves": 5341,
      "ries": 5342,
      "usion": 5343,
      "fell": 5344,
      "log": 5345,
      "ident": 5346,
      "ARIEL": 5347,
      "convey": 5348,
      "labour": 5349,
      "taken": 5350,
      "lordship": 5351,
      "blind": 5352,
      "woes": 5353,
      "discover": 5354,
      "oler": 5355,
      "chief": 5356,
      "despair": 5357,
      "affect": 5358,
      "prevent": 5359,
      "bray": 5360,
      "calls": 5361,
      "ize": 5362,
      "Unto": 5363,
      "struck": 5364,
      "reasons": 5365,
      "green": 5366,
      "glory": 5367,
      "LEWIS": 5368,
      "demand": 5369,
      "blessed": 5370,
      "profess": 5371,
      "humble": 5372,
      "complete": 5373,
      "Capulet": 5374,
      "Vols": 5375,
      "corresponds": 5376,
      "Earl": 5377,
      "leaves": 5378,
      "occasion": 5379,
      "introver": 5380,
      "depend": 5381,
      "physi": 5382,
      "system": 5383,
      "kinsman": 5384,
      "Watchman": 5385,
      "citizens": 5386,
      "Catesby": 5387,
      "LARTIUS": 5388,
      ",\"": 5389,
      "100": 5390,
      ";'": 5391,
      "Bro": 5392,
      "Don": 5393,
      "Hear": 5394,
      "Mow": 5395,
      "Never": 5396,
      "Pardon": 5397,
      "RTIS": 5398,
      "Si": 5399,
      "achi": 5400,
      "alive": 5401,
      "bend": 5402,
      "cise": 5403,
      "eve": 5404,
      "fold": 5405,
      "fought": 5406,
      "hn": 5407,
      "jour": 5408,
      "list": 5409,
      "mend": 5410,
      "ns": 5411,
      "nal": 5412,
      "nest": 5413,
      "por": 5414,
      "vity": 5415,
      "一定": 5416,
      "为了": 5417,
      "之间": 5418,
      "他的": 5419,
      "具有的": 5420,
      "大型": 5421,
      "总是": 5422,
      "生的": 5423,
      "结果": 5424,
      "给我": 5425,
      "让我": 5426,
      "识到": 5427,
      "这么": 5428,
      "预测": 5429,
      "incre": 5430,
      "istic": 5431,
      "around": 5432,
      "ature": 5433,
      "today": 5434,
      "stars": 5435,
      "stud": 5436,
      "methinks": 5437,
      "itors": 5438,
      "alous": 5439,
      "verse": 5440,
      "felt": 5441,
      "shake": 5442,
      "condu": 5443,
      "rupt": 5444,
      "share": 5445,
      "potent": 5446,
      "teen": 5447,
      "quit": 5448,
      "safet": 5449,
      "sometimes": 5450,
      "special": 5451,
      "abroad": 5452,
      "mbly": 5453,
      "design": 5454,
      "aff": 5455,
      "Within": 5456,
      "merle": 5457,
      "partner": 5458,
      "honours": 5459,
      "condition": 5460,
      "opin": 5461,
      "clam": 5462,
      "class": 5463,
      "guess": 5464,
      "guest": 5465,
      "priv": 5466,
      "cheeks": 5467,
      "deadly": 5468,
      "beggar": 5469,
      "foolish": 5470,
      "CURTIS": 5471,
      "promised": 5472,
      "below": 5473,
      "MPSON": 5474,
      "direct": 5475,
      "John": 5476,
      "drop": 5477,
      "wretched": 5478,
      "SAMPSON": 5479,
      "Keeper": 5480,
      "Happiness": 5481,
      "True": 5482,
      "comfortable": 5483,
      "Aumerle": 5484,
      "Faith": 5485,
      "doom": 5486,
      "quoth": 5487,
      "optimization": 5488,
      "Pedant": 5489,
      "Mowbray": 5490,
      "safety": 5491,
      ":--": 5492,
      "Apo": 5493,
      "BU": 5494,
      "Bet": 5495,
      "EX": 5496,
      "Either": 5497,
      "IGON": 5498,
      "Lew": 5499,
      "Mine": 5500,
      "Ne": 5501,
      "Put": 5502,
      "Under": 5503,
      "Yin": 5504,
      "ama": 5505,
      "cti": 5506,
      "cup": 5507,
      "chall": 5508,
      "dur": 5509,
      "dain": 5510,
      "ible": 5511,
      "net": 5512,
      "ners": 5513,
      "pul": 5514,
      "wra": 5515,
      "下的": 5516,
      "今天": 5517,
      "双机械臂": 5518,
      "变得": 5519,
      "地方": 5520,
      "工艺": 5521,
      "是一": 5522,
      "智能": 5523,
      "有多": 5524,
      "机能": 5525,
      "缺失": 5526,
      "阅读": 5527,
      "ances": 5528,
      "atic": 5529,
      "esy": 5530,
      "stro": 5531,
      "stance": 5532,
      "meat": 5533,
      "ref": 5534,
      "revol": 5535,
      "noon": 5536,
      "rot": 5537,
      "roar": 5538,
      "hire": 5539,
      "utter": 5540,
      "weight": 5541,
      "wealth": 5542,
      "deput": 5543,
      "deceive": 5544,
      "tide": 5545,
      "raid": 5546,
      "feed": 5547,
      "perfect": 5548,
      "cio": 5549,
      "cians": 5550,
      "cially": 5551,
      "proper": 5552,
      "proclaim": 5553,
      "pleased": 5554,
      "abor": 5555,
      "absol": 5556,
      "exc": 5557,
      "extrem": 5558,
      "based": 5559,
      "afraid": 5560,
      "brothers": 5561,
      "acher": 5562,
      "honourable": 5563,
      "pack": 5564,
      "paper": 5565,
      "everything": 5566,
      "steal": 5567,
      "kindred": 5568,
      "ships": 5569,
      "charity": 5570,
      "bids": 5571,
      "rank": 5572,
      "cutio": 5573,
      "chase": 5574,
      "venture": 5575,
      "minister": 5576,
      "wail": 5577,
      "single": 5578,
      "officer": 5579,
      "valour": 5580,
      "ANTIGON": 5581,
      "...": 5582,
      "grandfather": 5583,
      "路径规划": 5584,
      "Love": 5585,
      "judge": 5586,
      "judgment": 5587,
      "suddenly": 5588,
      "creature": 5589,
      "frame": 5590,
      "ician": 5591,
      "wretch": 5592,
      "Poor": 5593,
      "scarce": 5594,
      "satisfied": 5595,
      "Mercutio": 5596,
      "cruel": 5597,
      "several": 5598,
      "method": 5599,
      "ficiency": 5600,
      "vengeance": 5601,
      "BURY": 5602,
      "Lewis": 5603,
      "ANTIGONUS": 5604,
      "?'": 5605,
      "Alack": 5606,
      "Bid": 5607,
      "Chat": 5608,
      "Des": 5609,
      "Five": 5610,
      "Harry": 5611,
      "Know": 5612,
      "Mus": 5613,
      "Many": 5614,
      "Made": 5615,
      "RAT": 5616,
      "Show": 5617,
      "Twas": 5618,
      "Wo": 5619,
      "bility": 5620,
      "cate": 5621,
      "dwell": 5622,
      "equ": 5623,
      "fy": 5624,
      "hung": 5625,
      "ime": 5626,
      "ild": 5627,
      "lun": 5628,
      "nut": 5629,
      "number": 5630,
      "ray": 5631,
      "rent": 5632,
      "sme": 5633,
      "sion": 5634,
      "swords": 5635,
      "tory": 5636,
      "umb": 5637,
      "whis": 5638,
      "yard": 5639,
      "zing": 5640,
      "”，": 5641,
      "一直": 5642,
      "上的": 5643,
      "作业": 5644,
      "到了": 5645,
      "功能": 5646,
      "器官": 5647,
      "怎样": 5648,
      "我就": 5649,
      "我想": 5650,
      "我说": 5651,
      "拥有": 5652,
      "提出": 5653,
      "每个人": 5654,
      "的话": 5655,
      "计算": 5656,
      "选择": 5657,
      "thro": 5658,
      "anon": 5659,
      "envy": 5660,
      "ited": 5661,
      "lean": 5662,
      "former": 5663,
      "hip": 5664,
      "utes": 5665,
      "dev": 5666,
      "alter": 5667,
      "ado": 5668,
      "cock": 5669,
      "ram": 5670,
      "uni": 5671,
      "logy": 5672,
      "idle": 5673,
      "neg": 5674,
      "faint": 5675,
      "moment": 5676,
      "shrew": 5677,
      "ific": 5678,
      "perceive": 5679,
      "cian": 5680,
      "prote": 5681,
      "provost": 5682,
      "blest": 5683,
      "blush": 5684,
      "thereof": 5685,
      "earch": 5686,
      "WeChat": 5687,
      "fig": 5688,
      "ounds": 5689,
      "didn": 5690,
      "ples": 5691,
      "wherefore": 5692,
      "miser": 5693,
      "foes": 5694,
      "sces": 5695,
      "tract": 5696,
      "parents": 5697,
      "getting": 5698,
      "priest": 5699,
      "trial": 5700,
      "faced": 5701,
      "trees": 5702,
      "giving": 5703,
      "energy": 5704,
      "clock": 5705,
      "elder": 5706,
      "crave": 5707,
      "smooth": 5708,
      "wait": 5709,
      "deserve": 5710,
      "winds": 5711,
      "yea": 5712,
      "accus": 5713,
      "forced": 5714,
      "keyword": 5715,
      "Cominius": 5716,
      "Peter": 5717,
      "walls": 5718,
      "Volsces": 5719,
      "prophe": 5720,
      "daily": 5721,
      "embrace": 5722,
      "approach": 5723,
      "RRT": 5724,
      "blame": 5725,
      "listen": 5726,
      "loyal": 5727,
      "innocent": 5728,
      "determin": 5729,
      "malice": 5730,
      "dinner": 5731,
      "desperate": 5732,
      "circ": 5733,
      "prepared": 5734,
      "RATCLIFF": 5735,
      "'?": 5736,
      "BIS": 5737,
      "Barn": 5738,
      "Fig": 5739,
      "Fie": 5740,
      "Hence": 5741,
      "Hel": 5742,
      "HOP": 5743,
      "Kather": 5744,
      "La": 5745,
      "LEY": 5746,
      "Mant": 5747,
      "Rut": 5748,
      "Vin": 5749,
      "]。": 5750,
      "ai": 5751,
      "ax": 5752,
      "ago": 5753,
      "bite": 5754,
      "crow": 5755,
      "eed": 5756,
      "fro": 5757,
      "fla": 5758,
      "gent": 5759,
      "gest": 5760,
      "gard": 5761,
      "gown": 5762,
      "gage": 5763,
      "lest": 5764,
      "luck": 5765,
      "nine": 5766,
      "pare": 5767,
      "pic": 5768,
      "rit": 5769,
      "sple": 5770,
      "tes": 5771,
      "twice": 5772,
      "wood": 5773,
      "wine": 5774,
      "wag": 5775,
      "不仅": 5776,
      "信息": 5777,
      "出现": 5778,
      "外向": 5779,
      "安全": 5780,
      "希望": 5781,
      "当你": 5782,
      "当然": 5783,
      "影响": 5784,
      "意义": 5785,
      "感到": 5786,
      "成功": 5787,
      "技术": 5788,
      "末端": 5789,
      "父亲": 5790,
      "的小": 5791,
      "认为": 5792,
      "起来": 5793,
      "还有": 5794,
      "避障": 5795,
      "都会": 5796,
      "inf": 5797,
      "inher": 5798,
      "enes": 5799,
      "lly": 5800,
      "stones": 5801,
      "stuff": 5802,
      "memor": 5803,
      "meant": 5804,
      "reed": 5805,
      "vell": 5806,
      "haps": 5807,
      "leep": 5808,
      "lix": 5809,
      "weigh": 5810,
      "ghost": 5811,
      "dece": 5812,
      "ads": 5813,
      "lying": 5814,
      "tired": 5815,
      "unning": 5816,
      "shal": 5817,
      "concl": 5818,
      "shri": 5819,
      "comb": 5820,
      "ANLEY": 5821,
      "produ": 5822,
      "mayst": 5823,
      "exer": 5824,
      "accept": 5825,
      "baby": 5826,
      "IST": 5827,
      "despite": 5828,
      "counten": 5829,
      "heavi": 5830,
      "standing": 5831,
      "tyrant": 5832,
      "bran": 5833,
      "dull": 5834,
      "Lords": 5835,
      "serv": 5836,
      "commit": 5837,
      "rench": 5838,
      "ioli": 5839,
      "charac": 5840,
      "jealous": 5841,
      "buried": 5842,
      "tongues": 5843,
      "compan": 5844,
      "STANLEY": 5845,
      "gives": 5846,
      "corse": 5847,
      "passing": 5848,
      "passion": 5849,
      "feeling": 5850,
      "Only": 5851,
      "welve": 5852,
      "chair": 5853,
      "fellows": 5854,
      "stomach": 5855,
      "wrongs": 5856,
      "maids": 5857,
      "Stan": 5858,
      "slow": 5859,
      "Prince": 5860,
      "pains": 5861,
      "desert": 5862,
      "contented": 5863,
      "leads": 5864,
      "honesty": 5865,
      "dress": 5866,
      "changing": 5867,
      "Whilst": 5868,
      "Corioli": 5869,
      "humour": 5870,
      "Methinks": 5871,
      "Death": 5872,
      "Having": 5873,
      "brows": 5874,
      "usurp": 5875,
      "thinking": 5876,
      "divine": 5877,
      "Thomas": 5878,
      "BALT": 5879,
      "TYBALT": 5880,
      "techno": 5881,
      "Paulina": 5882,
      "Besides": 5883,
      "fruit": 5884,
      "deputy": 5885,
      "excuse": 5886,
      "BISHOP": 5887,
      "Figure": 5888,
      "Katherine": 5889,
      "Mantua": 5890,
      "Rutland": 5891,
      "Vincentio": 5892,
      "AL": 5893,
      "Ad": 5894,
      "Ho": 5895,
      "KEN": 5896,
      "Met": 5897,
      "Res": 5898,
      "Tut": 5899,
      "].": 5900,
      "cli": 5901,
      "cket": 5902,
      "dust": 5903,
      "event": 5904,
      "emotion": 5905,
      "fas": 5906,
      "fret": 5907,
      "hit": 5908,
      "iled": 5909,
      "kna": 5910,
      "ler": 5911,
      "mn": 5912,
      "ming": 5913,
      "mere": 5914,
      "nur": 5915,
      "pin": 5916,
      "pow": 5917,
      "sli": 5918,
      "sits": 5919,
      "skill": 5920,
      "twixt": 5921,
      "va": 5922,
      "vish": 5923,
      "wat": 5924,
      "wof": 5925,
      "wake": 5926,
      "不想": 5927,
      "了一个": 5928,
      "五行": 5929,
      "他说": 5930,
      "作为": 5931,
      "你是": 5932,
      "其他": 5933,
      "存在": 5934,
      "它们": 5935,
      "才会": 5936,
      "标题": 5937,
      "生成": 5938,
      "离开": 5939,
      "稳定": 5940,
      "精度": 5941,
      "美食": 5942,
      "设计": 5943,
      "语文": 5944,
      "那些": 5945,
      "thunder": 5946,
      "ination": 5947,
      "enius": 5948,
      "attent": 5949,
      "onoun": 5950,
      "stat": 5951,
      "rema": 5952,
      "reach": 5953,
      "sem": 5954,
      "sequ": 5955,
      "nose": 5956,
      "beard": 5957,
      "belong": 5958,
      "became": 5959,
      "hion": 5960,
      "lia": 5961,
      "weeds": 5962,
      "delight": 5963,
      "wither": 5964,
      "hollow": 5965,
      "fee": 5966,
      "fain": 5967,
      "fail": 5968,
      "faces": 5969,
      "constra": 5970,
      "modest": 5971,
      "shut": 5972,
      "quaint": 5973,
      "ctise": 5974,
      "ants": 5975,
      "AND": 5976,
      "wore": 5977,
      "sail": 5978,
      "sacred": 5979,
      "sheep": 5980,
      "diag": 5981,
      "therein": 5982,
      "seeing": 5983,
      "sirrah": 5984,
      "ages": 5985,
      "fiery": 5986,
      "sire": 5987,
      "abs": 5988,
      "ably": 5989,
      "excell": 5990,
      "broken": 5991,
      "spake": 5992,
      "Somer": 5993,
      "affair": 5994,
      "However": 5995,
      "prehen": 5996,
      "prevail": 5997,
      "tyran": 5998,
      "pping": 5999,
      "paid": 6000,
      "commend": 6001,
      "traitors": 6002,
      "whilst": 6003,
      "Anti": 6004,
      "THOM": 6005,
      "renown": 6006,
      "places": 6007,
      "wicked": 6008,
      "Dost": 6009,
      "wanted": 6010,
      "farther": 6011,
      "charged": 6012,
      "lacks": 6013,
      "senate": 6014,
      "remedy": 6015,
      "repent": 6016,
      "turns": 6017,
      "drawn": 6018,
      "witch": 6019,
      "minute": 6020,
      "cares": 6021,
      "carry": 6022,
      "seeming": 6023,
      "这样的": 6024,
      "teacher": 6025,
      "gross": 6026,
      "Jove": 6027,
      "practise": 6028,
      "waste": 6029,
      "collabor": 6030,
      "重要的": 6031,
      "cument": 6032,
      "sharp": 6033,
      "Caius": 6034,
      "problems": 6035,
      "Art": 6036,
      "intelligent": 6037,
      "particularly": 6038,
      "Mistress": 6039,
      "BRAKEN": 6040,
      "root": 6041,
      "knave": 6042,
      "fatal": 6043,
      "third": 6044,
      "study": 6045,
      "experience": 6046,
      "Friar": 6047,
      "Verona": 6048,
      "condemn": 6049,
      "Indeed": 6050,
      "Brother": 6051,
      "potential": 6052,
      "absolute": 6053,
      "spleen": 6054,
      "Stanley": 6055,
      "THOMAS": 6056,
      "BRAKENBURY": 6057,
      "Dor": 6058,
      "DER": 6059,
      "Fl": 6060,
      "GOR": 6061,
      "Great": 6062,
      "MIST": 6063,
      "OV": 6064,
      "RESS": 6065,
      "Sha": 6066,
      "Still": 6067,
      "Two": 6068,
      "Turn": 6069,
      "ball": 6070,
      "boot": 6071,
      "flies": 6072,
      "fury": 6073,
      "hors": 6074,
      "ili": 6075,
      "iest": 6076,
      "itol": 6077,
      "lend": 6078,
      "oper": 6079,
      "plot": 6080,
      "ras": 6081,
      "sho": 6082,
      "sink": 6083,
      "squi": 6084,
      "tread": 6085,
      "twelve": 6086,
      "zy": 6087,
      "zard": 6088,
      "了解": 6089,
      "人类": 6090,
      "写作": 6091,
      "努力": 6092,
      "咱们": 6093,
      "如此": 6094,
      "平滑": 6095,
      "录片": 6096,
      "必须": 6097,
      "性的": 6098,
      "意识到": 6099,
      "感受": 6100,
      "或者": 6101,
      "才能": 6102,
      "效率": 6103,
      "方案": 6104,
      "无论": 6105,
      "是我": 6106,
      "有人": 6107,
      "有一个": 6108,
      "永远": 6109,
      "焊缝": 6110,
      "然而": 6111,
      "爱的": 6112,
      "相信": 6113,
      "纪录片": 6114,
      "辈子": 6115,
      "过程": 6116,
      "钢结构": 6117,
      "thread": 6118,
      "inous": 6119,
      "orious": 6120,
      "oracle": 6121,
      "member": 6122,
      "record": 6123,
      "require": 6124,
      "velo": 6125,
      "habit": 6126,
      "beloved": 6127,
      "rock": 6128,
      "rote": 6129,
      "asp": 6130,
      "cease": 6131,
      "limit": 6132,
      "dew": 6133,
      "alas": 6134,
      "ourish": 6135,
      "ride": 6136,
      "rious": 6137,
      "adie": 6138,
      "advantage": 6139,
      "tid": 6140,
      "tial": 6141,
      "urs": 6142,
      "urance": 6143,
      "rain": 6144,
      "raise": 6145,
      "raised": 6146,
      "document": 6147,
      "loath": 6148,
      "mag": 6149,
      "cking": 6150,
      "butcher": 6151,
      "ardine": 6152,
      "rude": 6153,
      "shine": 6154,
      "shore": 6155,
      "points": 6156,
      "taking": 6157,
      "ouses": 6158,
      "bodies": 6159,
      "cies": 6160,
      "plead": 6161,
      "likely": 6162,
      "Myself": 6163,
      "ational": 6164,
      "mayor": 6165,
      "extro": 6166,
      "anced": 6167,
      "access": 6168,
      "vide": 6169,
      "Believe": 6170,
      "resign": 6171,
      "wherein": 6172,
      "looked": 6173,
      "undone": 6174,
      "prepare": 6175,
      "impro": 6176,
      "imprison": 6177,
      "Wherein": 6178,
      "dynam": 6179,
      "scene": 6180,
      "ONE": 6181,
      "prayer": 6182,
      "bearing": 6183,
      "engine": 6184,
      "holds": 6185,
      "cheek": 6186,
      "plague": 6187,
      "daughters": 6188,
      "wanton": 6189,
      "fares": 6190,
      "这个人": 6191,
      "follows": 6192,
      "followers": 6193,
      "brain": 6194,
      "turned": 6195,
      "vised": 6196,
      "fools": 6197,
      "GREGOR": 6198,
      "appare": 6199,
      "spoken": 6200,
      "silver": 6201,
      "troth": 6202,
      "structure": 6203,
      "easily": 6204,
      "algorithms": 6205,
      "supper": 6206,
      "mission": 6207,
      "awake": 6208,
      "custom": 6209,
      "Capitol": 6210,
      "diffic": 6211,
      "castle": 6212,
      "storm": 6213,
      "stories": 6214,
      "belly": 6215,
      "empty": 6216,
      "borne": 6217,
      "Earth": 6218,
      "Leave": 6219,
      "colour": 6220,
      "对应的": 6221,
      "dreadful": 6222,
      "information": 6223,
      "Prithee": 6224,
      "ERDONE": 6225,
      "trumpets": 6226,
      "Menenius": 6227,
      "ignorant": 6228,
      "finger": 6229,
      "contrary": 6230,
      "conquer": 6231,
      "Christi": 6232,
      "punish": 6233,
      "students": 6234,
      "opinion": 6235,
      "private": 6236,
      "Apollo": 6237,
      "rotten": 6238,
      "deceived": 6239,
      "Barnardine": 6240,
      "garden": 6241,
      "exercise": 6242,
      "Metal": 6243,
      "diagram": 6244,
      "absence": 6245,
      "Somerset": 6246,
      "DERBY": 6247,
      "MISTRESS": 6248,
      "OVERDONE": 6249,
      "adieu": 6250,
      "dynamic": 6251,
      "GREGORY": 6252,
      "11": 6253,
      "15": 6254,
      "Afri": 6255,
      "Bion": 6256,
      "CH": 6257,
      "Cur": 6258,
      "Cousin": 6259,
      "Dear": 6260,
      "FORD": 6261,
      "None": 6262,
      "OX": 6263,
      "Pis": 6264,
      "Right": 6265,
      "SO": 6266,
      "SOM": 6267,
      "Very": 6268,
      "VAL": 6269,
      "Wood": 6270,
      "bark": 6271,
      "eous": 6272,
      "eating": 6273,
      "furn": 6274,
      "ffic": 6275,
      "gon": 6276,
      "loud": 6277,
      "phi": 6278,
      "pure": 6279,
      "passa": 6280,
      "sco": 6281,
      "saint": 6282,
      "sooth": 6283,
      "tree": 6284,
      "vous": 6285,
      "vouch": 6286,
      "wan": 6287,
      "wand": 6288,
      "wond": 6289,
      "wrote": 6290,
      "”。": 6291,
      "下来": 6292,
      "事情": 6293,
      "以后": 6294,
      "仿真": 6295,
      "保持": 6296,
      "内心": 6297,
      "利用": 6298,
      "处理": 6299,
      "失去": 6300,
      "学校": 6301,
      "完全": 6302,
      "得到": 6303,
      "提升": 6304,
      "无法": 6305,
      "有效": 6306,
      "来说": 6307,
      "核心": 6308,
      "的生活": 6309,
      "直到": 6310,
      "线性": 6311,
      "而且": 6312,
      "身边": 6313,
      "这就是": 6314,
      "部分": 6315,
      "都有": 6316,
      "面的": 6317,
      "inte": 6318,
      "inking": 6319,
      "instruct": 6320,
      "instant": 6321,
      "envious": 6322,
      "reli": 6323,
      "rede": 6324,
      "seas": 6325,
      "nobles": 6326,
      "becomes": 6327,
      "beyond": 6328,
      "wives": 6329,
      "roth": 6330,
      "robo": 6331,
      "asleep": 6332,
      "eding": 6333,
      "ldom": 6334,
      "owe": 6335,
      "deposed": 6336,
      "tily": 6337,
      "uses": 6338,
      "using": 6339,
      "uns": 6340,
      "lod": 6341,
      "ckle": 6342,
      "sued": 6343,
      "ruin": 6344,
      "rule": 6345,
      "pronoun": 6346,
      "poster": 6347,
      "comput": 6348,
      "iff": 6349,
      "tail": 6350,
      "taste": 6351,
      "taught": 6352,
      "Three": 6353,
      "Thurs": 6354,
      "cts": 6355,
      "cture": 6356,
      "capt": 6357,
      "outward": 6358,
      "ERIA": 6359,
      "pers": 6360,
      "persu": 6361,
      "indust": 6362,
      "apt": 6363,
      "simp": 6364,
      "broad": 6365,
      "shouldst": 6366,
      "fathers": 6367,
      "ounty": 6368,
      "disgrace": 6369,
      "disposition": 6370,
      "Into": 6371,
      "ication": 6372,
      "babe": 6373,
      "market": 6374,
      "RICHMON": 6375,
      "efficiency": 6376,
      "pped": 6377,
      "mistake": 6378,
      "grad": 6379,
      "inted": 6380,
      "intent": 6381,
      "gentlewoman": 6382,
      "trad": 6383,
      "offend": 6384,
      "mione": 6385,
      "parts": 6386,
      "impossible": 6387,
      "serves": 6388,
      "serious": 6389,
      "Mark": 6390,
      "oppos": 6391,
      "pawn": 6392,
      "commun": 6393,
      "ized": 6394,
      "whither": 6395,
      "parent": 6396,
      "guilt": 6397,
      "preser": 6398,
      "tedious": 6399,
      "Rivers": 6400,
      "umn": 6401,
      "began": 6402,
      "begins": 6403,
      "wanting": 6404,
      "denied": 6405,
      "joyful": 6406,
      "powerful": 6407,
      "keeps": 6408,
      "trying": 6409,
      "build": 6410,
      "这个世界": 6411,
      "compass": 6412,
      "ference": 6413,
      "curst": 6414,
      "rememb": 6415,
      "garments": 6416,
      "生活中": 6417,
      "Hermione": 6418,
      "vision": 6419,
      "version": 6420,
      "hardly": 6421,
      "hanging": 6422,
      "wounded": 6423,
      "lamb": 6424,
      "penit": 6425,
      "troop": 6426,
      "轨迹跟踪": 6427,
      "Grey": 6428,
      "cries": 6429,
      "granted": 6430,
      "damned": 6431,
      "resolve": 6432,
      "resolved": 6433,
      "ERSET": 6434,
      "burthen": 6435,
      "actions": 6436,
      "employ": 6437,
      "thrive": 6438,
      "continue": 6439,
      "sighs": 6440,
      "names": 6441,
      "months": 6442,
      "basket": 6443,
      "advise": 6444,
      "pleasant": 6445,
      "violent": 6446,
      "authority": 6447,
      "obedience": 6448,
      "gift": 6449,
      "society": 6450,
      "obstacle": 6451,
      "relationship": 6452,
      "journey": 6453,
      "大型钢结构": 6454,
      "conduct": 6455,
      "Musician": 6456,
      "throat": 6457,
      "devise": 6458,
      "Help": 6459,
      "countenance": 6460,
      "woful": 6461,
      "remains": 6462,
      "affairs": 6463,
      "rascal": 6464,
      "squito": 6465,
      "tidings": 6466,
      "Christian": 6467,
      "OXFORD": 6468,
      "Pisa": 6469,
      "SOMERSET": 6470,
      "VALERIA": 6471,
      "integr": 6472,
      "Thursday": 6473,
      "RICHMOND": 6474,
      "12": 6475,
      "AE": 6476,
      "AMIL": 6477,
      "BUS": 6478,
      "Beseech": 6479,
      "Bona": 6480,
      "El": 6481,
      "HY": 6482,
      "Has": 6483,
      "LIUS": 6484,
      "MOW": 6485,
      "MOP": 6486,
      "MAMIL": 6487,
      "Set": 6488,
      "Save": 6489,
      "Sici": 6490,
      "Tail": 6491,
      "boo": 6492,
      "bill": 6493,
      "bond": 6494,
      "cou": 6495,
      "catch": 6496,
      "cunning": 6497,
      "date": 6498,
      "east": 6499,
      "flight": 6500,
      "houses": 6501,
      "ives": 6502,
      "jury": 6503,
      "kest": 6504,
      "later": 6505,
      "rt": 6506,
      "rush": 6507,
      "rash": 6508,
      "san": 6509,
      "smo": 6510,
      "tut": 6511,
      "treat": 6512,
      "yonder": 6513,
      "一切": 6514,
      "不同": 6515,
      "不可能": 6516,
      "也会": 6517,
      "你在": 6518,
      "停止": 6519,
      "公众": 6520,
      "创造": 6521,
      "动力": 6522,
      "只要": 6523,
      "后来": 6524,
      "声音": 6525,
      "学习": 6526,
      "完成": 6527,
      "容易": 6528,
      "属于": 6529,
      "带来": 6530,
      "当时": 6531,
      "性和": 6532,
      "我曾": 6533,
      "指数": 6534,
      "整个": 6535,
      "是你": 6536,
      "有一天": 6537,
      "梦想": 6538,
      "母亲": 6539,
      "比如": 6540,
      "爱你": 6541,
      "父母": 6542,
      "看看": 6543,
      "第一": 6544,
      "策略": 6545,
      "结合": 6546,
      "给你": 6547,
      "翅膀": 6548,
      "蚊帐": 6549,
      "记得": 6550,
      "语言": 6551,
      "面前": 6552,
      "thi": 6553,
      "thrust": 6554,
      "ened": 6555,
      "ises": 6556,
      "argu": 6557,
      "tomorrow": 6558,
      "stab": 6559,
      "stable": 6560,
      "repe": 6561,
      "reward": 6562,
      "sets": 6563,
      "ites": 6564,
      "itive": 6565,
      "itude": 6566,
      "vex": 6567,
      "legs": 6568,
      "belike": 6569,
      "beheld": 6570,
      "forsworn": 6571,
      "lion": 6572,
      "weap": 6573,
      "week": 6574,
      "notes": 6575,
      "devo": 6576,
      "delay": 6577,
      "dello": 6578,
      "social": 6579,
      "history": 6580,
      "adventure": 6581,
      "cot": 6582,
      "raw": 6583,
      "feet": 6584,
      "unless": 6585,
      "unhappy": 6586,
      "lots": 6587,
      "mage": 6588,
      "maint": 6589,
      "pear": 6590,
      "sues": 6591,
      "super": 6592,
      "sured": 6593,
      "terms": 6594,
      "conj": 6595,
      "contract": 6596,
      "shr": 6597,
      "ify": 6598,
      "ified": 6599,
      "quench": 6600,
      "quality": 6601,
      "ulation": 6602,
      "cab": 6603,
      "kingly": 6604,
      "peril": 6605,
      "perish": 6606,
      "perpet": 6607,
      "goodness": 6608,
      "ETER": 6609,
      "dign": 6610,
      "proposed": 6611,
      "protest": 6612,
      "agree": 6613,
      "agger": 6614,
      "ficial": 6615,
      "ficient": 6616,
      "appoint": 6617,
      "extre": 6618,
      "exile": 6619,
      "timely": 6620,
      "disdain": 6621,
      "desc": 6622,
      "telling": 6623,
      "prey": 6624,
      "ABHOR": 6625,
      "misery": 6626,
      "intend": 6627,
      "brings": 6628,
      "assurance": 6629,
      "greatest": 6630,
      "joint": 6631,
      "tled": 6632,
      "betwixt": 6633,
      "fortunes": 6634,
      "prize": 6635,
      "backs": 6636,
      "higher": 6637,
      "begg": 6638,
      "wants": 6639,
      "treasure": 6640,
      "joys": 6641,
      "ranking": 6642,
      "afternoon": 6643,
      "current": 6644,
      "formation": 6645,
      "sorry": 6646,
      "他们的": 6647,
      "meeting": 6648,
      "生活的": 6649,
      "carried": 6650,
      "spirits": 6651,
      "waking": 6652,
      "Boy": 6653,
      "painted": 6654,
      "humbly": 6655,
      "freely": 6656,
      "idea": 6657,
      "accuse": 6658,
      "groom": 6659,
      "courtesy": 6660,
      "famous": 6661,
      "destroy": 6662,
      "atswain": 6663,
      "direction": 6664,
      "wont": 6665,
      "wonderful": 6666,
      "wallow": 6667,
      "petition": 6668,
      "credit": 6669,
      "Polix": 6670,
      "started": 6671,
      "wedding": 6672,
      "organ": 6673,
      "palace": 6674,
      "Keep": 6675,
      "dares": 6676,
      "intelligence": 6677,
      "Those": 6678,
      "drum": 6679,
      "fancy": 6680,
      "BRAY": 6681,
      "mountain": 6682,
      "willingly": 6683,
      "support": 6684,
      "suspect": 6685,
      "solemn": 6686,
      "different": 6687,
      "neighbour": 6688,
      "Officer": 6689,
      "EXETER": 6690,
      "wrath": 6691,
      "smell": 6692,
      "miserable": 6693,
      "circum": 6694,
      "memory": 6695,
      "character": 6696,
      "waters": 6697,
      "excellent": 6698,
      "horses": 6699,
      "Biondello": 6700,
      "simply": 6701,
      "BUSHY": 6702,
      "MOWBRAY": 6703,
      "MOPSA": 6704,
      "MAMILLIUS": 6705,
      "Tailor": 6706,
      "extreme": 6707,
      "ABHORSON": 6708,
      "Polixenes": 6709,
      "!\"": 6710,
      "Bear": 6711,
      "CY": 6712,
      "Each": 6713,
      "Four": 6714,
      "Father": 6715,
      "French": 6716,
      "Gu": 6717,
      "Long": 6718,
      "Might": 6719,
      "Nap": 6720,
      "Ok": 6721,
      "Play": 6722,
      "Qu": 6723,
      "Ret": 6724,
      "Wid": 6725,
      "ald": 6726,
      "bare": 6727,
      "cere": 6728,
      "dad": 6729,
      "evol": 6730,
      "fif": 6731,
      "gru": 6732,
      "gate": 6733,
      "gree": 6734,
      "gently": 6735,
      "hark": 6736,
      "kni": 6737,
      "lp": 6738,
      "len": 6739,
      "lain": 6740,
      "lower": 6741,
      "mil": 6742,
      "mity": 6743,
      "non": 6744,
      "naked": 6745,
      "pment": 6746,
      "patri": 6747,
      "ress": 6748,
      "rare": 6749,
      "rous": 6750,
      "song": 6751,
      "scept": 6752,
      "swallow": 6753,
      "tall": 6754,
      "tort": 6755,
      "uc": 6756,
      "var": 6757,
      "vit": 6758,
      "wits": 6759,
      "wreck": 6760,
      "一边": 6761,
      "中国": 6762,
      "人生": 6763,
      "以为": 6764,
      "充满": 6765,
      "力量": 6766,
      "在你": 6767,
      "场景": 6768,
      "年轻": 6769,
      "建立": 6770,
      "所有的": 6771,
      "挑战": 6772,
      "明白": 6773,
      "是在": 6774,
      "本书": 6775,
      "的那": 6776,
      "看着": 6777,
      "知识": 6778,
      "简单": 6779,
      "而是": 6780,
      "要求": 6781,
      "过去": 6782,
      "适应": 6783,
      "面对": 6784,
      "infect": 6785,
      "arrow": 6786,
      "espe": 6787,
      "esca": 6788,
      "tomb": 6789,
      "stam": 6790,
      "heed": 6791,
      "heal": 6792,
      "rec": 6793,
      "rece": 6794,
      "recon": 6795,
      "repair": 6796,
      "seest": 6797,
      "season": 6798,
      "havi": 6799,
      "rose": 6800,
      "forgive": 6801,
      "hid": 6802,
      "liver": 6803,
      "wept": 6804,
      "debt": 6805,
      "develo": 6806,
      "degree": 6807,
      "aly": 6808,
      "although": 6809,
      "hatred": 6810,
      "adder": 6811,
      "advised": 6812,
      "cost": 6813,
      "tire": 6814,
      "tied": 6815,
      "hopes": 6816,
      "hospit": 6817,
      "unknown": 6818,
      "unnatural": 6819,
      "ordin": 6820,
      "ording": 6821,
      "amb": 6822,
      "amen": 6823,
      "hereafter": 6824,
      "manif": 6825,
      "ARCH": 6826,
      "terror": 6827,
      "shape": 6828,
      "endure": 6829,
      "lace": 6830,
      "moving": 6831,
      "mosquito": 6832,
      "comest": 6833,
      "tap": 6834,
      "Through": 6835,
      "ctu": 6836,
      "bled": 6837,
      "dile": 6838,
      "Forgive": 6839,
      "theirs": 6840,
      "sometime": 6841,
      "fix": 6842,
      "wholes": 6843,
      "apart": 6844,
      "wot": 6845,
      "Nothing": 6846,
      "spare": 6847,
      "acles": 6848,
      "hearted": 6849,
      "chide": 6850,
      "research": 6851,
      "friendly": 6852,
      "gress": 6853,
      "assist": 6854,
      "duked": 6855,
      "fairly": 6856,
      "folly": 6857,
      "Marshal": 6858,
      "dying": 6859,
      "pable": 6860,
      "traject": 6861,
      "traffic": 6862,
      "whiles": 6863,
      "putting": 6864,
      "needful": 6865,
      "THAS": 6866,
      "privile": 6867,
      "tried": 6868,
      "trick": 6869,
      "Thanks": 6870,
      "kindly": 6871,
      "undertake": 6872,
      "finds": 6873,
      "crowns": 6874,
      "如果身体": 6875,
      "curses": 6876,
      "boys": 6877,
      "autumn": 6878,
      "senators": 6879,
      "corre": 6880,
      "clothe": 6881,
      "PERCY": 6882,
      "thousands": 6883,
      "monstr": 6884,
      "surely": 6885,
      "deserves": 6886,
      "learned": 6887,
      "calm": 6888,
      "written": 6889,
      "deeply": 6890,
      "commanded": 6891,
      "leaders": 6892,
      "Remember": 6893,
      "Mayor": 6894,
      "groan": 6895,
      "keywords": 6896,
      "profit": 6897,
      "gaze": 6898,
      "structures": 6899,
      "watching": 6900,
      "counterfeit": 6901,
      "praise": 6902,
      "shortly": 6903,
      "drops": 6904,
      "resolution": 6905,
      "stoop": 6906,
      "burden": 6907,
      "特别弱": 6908,
      "instrument": 6909,
      "colours": 6910,
      "princes": 6911,
      "princess": 6912,
      "respected": 6913,
      "piteous": 6914,
      "determine": 6915,
      "realm": 6916,
      "reverend": 6917,
      "government": 6918,
      "BALTHAS": 6919,
      "streets": 6920,
      "mourn": 6921,
      "你会发现": 6922,
      "million": 6923,
      "threaten": 6924,
      "预测模型": 6925,
      "increase": 6926,
      "durst": 6927,
      "picion": 6928,
      "services": 6929,
      "fashion": 6930,
      "extrover": 6931,
      "apparel": 6932,
      "opposite": 6933,
      "remembrance": 6934,
      "公众号": 6935,
      "Okay": 6936,
      "Widow": 6937,
      "especially": 6938,
      "dukedom": 6939,
      "BALTHASAR": 6940,
      "16": 6941,
      "22": 6942,
      "?--": 6943,
      "Ap": 6944,
      "Ano": 6945,
      "Amen": 6946,
      "Bre": 6947,
      "Ele": 6948,
      "Fe": 6949,
      "FOL": 6950,
      "Lay": 6951,
      "Mil": 6952,
      "Na": 6953,
      "Page": 6954,
      "Post": 6955,
      "Son": 6956,
      "Sal": 6957,
      "Sup": 6958,
      "Sim": 6959,
      "Tit": 6960,
      "Whither": 6961,
      "ah": 6962,
      "bon": 6963,
      "cat": 6964,
      "cas": 6965,
      "core": 6966,
      "dit": 6967,
      "during": 6968,
      "dagger": 6969,
      "fare": 6970,
      "gin": 6971,
      "ient": 6972,
      "knight": 6973,
      "murderer": 6974,
      "messenger": 6975,
      "nice": 6976,
      "nought": 6977,
      "pent": 6978,
      "purse": 6979,
      "sain": 6980,
      "sway": 6981,
      "sins": 6982,
      "slay": 6983,
      "slip": 6984,
      "ued": 6985,
      "ufact": 6986,
      "vours": 6987,
      "wink": 6988,
      "一步": 6989,
      "上图": 6990,
      "不再": 6991,
      "中文": 6992,
      "以及": 6993,
      "价值": 6994,
      "做到": 6995,
      "做的": 6996,
      "内容": 6997,
      "同学": 6998,
      "启发": 6999,
      "告诉": 7000,
      "姿态": 7001,
      "开心": 7002,
      "当我": 7003,
      "想法": 7004,
      "我不": 7005,
      "所示": 7006,
      "提供": 7007,
      "新的": 7008,
      "时代": 7009,
      "曾经": 7010,
      "有一": 7011,
      "构建": 7012,
      "框架": 7013,
      "用于": 7014,
      "的孩子": 7015,
      "的地方": 7016,
      "碰撞": 7017,
      "篮子": 7018,
      "里的": 7019,
      "随着": 7020,
      "非洲": 7021,
      "，“": 7022,
      "thorn": 7023,
      "erce": 7024,
      "inde": 7025,
      "inside": 7026,
      "enmity": 7027,
      "ism": 7028,
      "isn": 7029,
      "isle": 7030,
      "ishop": 7031,
      "sting": 7032,
      "store": 7033,
      "stret": 7034,
      "stum": 7035,
      "strew": 7036,
      "rebel": 7037,
      "remove": 7038,
      "sees": 7039,
      "seize": 7040,
      "itation": 7041,
      "veins": 7042,
      "lear": 7043,
      "belie": 7044,
      "behalf": 7045,
      "wide": 7046,
      "choler": 7047,
      "rogue": 7048,
      "myster": 7049,
      "ays": 7050,
      "hill": 7051,
      "limb": 7052,
      "lief": 7053,
      "weather": 7054,
      "dec": 7055,
      "keeper": 7056,
      "soever": 7057,
      "advice": 7058,
      "advers": 7059,
      "admit": 7060,
      "tier": 7061,
      "untimely": 7062,
      "loso": 7063,
      "estate": 7064,
      "ams": 7065,
      "manners": 7066,
      "manufact": 7067,
      "fame": 7068,
      "faction": 7069,
      "term": 7070,
      "lap": 7071,
      "model": 7072,
      "poli": 7073,
      "poet": 7074,
      "morn": 7075,
      "seless": 7076,
      "boar": 7077,
      "capable": 7078,
      "outs": 7079,
      "venom": 7080,
      "lets": 7081,
      "earnest": 7082,
      "ague": 7083,
      "Young": 7084,
      "apprehen": 7085,
      "absent": 7086,
      "exp": 7087,
      "brook": 7088,
      "spite": 7089,
      "disper": 7090,
      "我们都": 7091,
      "CAS": 7092,
      "anymore": 7093,
      "anything": 7094,
      "Sold": 7095,
      "tells": 7096,
      "afford": 7097,
      "effe": 7098,
      "predi": 7099,
      "bred": 7100,
      "merit": 7101,
      "grou": 7102,
      "strate": 7103,
      "tran": 7104,
      "partly": 7105,
      "immedi": 7106,
      "served": 7107,
      "March": 7108,
      "flu": 7109,
      "flood": 7110,
      "train": 7111,
      "trade": 7112,
      "mothers": 7113,
      "parti": 7114,
      "gues": 7115,
      "engthen": 7116,
      "begun": 7117,
      "treacher": 7118,
      "armour": 7119,
      "slept": 7120,
      "lasting": 7121,
      "因为我": 7122,
      "maiden": 7123,
      "grey": 7124,
      "greed": 7125,
      "Boatswain": 7126,
      "hateful": 7127,
      "ROSS": 7128,
      "glorious": 7129,
      "grows": 7130,
      "appears": 7131,
      "sitting": 7132,
      "liff": 7133,
      "accident": 7134,
      "according": 7135,
      "silent": 7136,
      "Gentlemen": 7137,
      "NORFOL": 7138,
      "Lucio": 7139,
      "suitcase": 7140,
      "pression": 7141,
      "teaching": 7142,
      "value": 7143,
      "bird": 7144,
      "destiny": 7145,
      "pieces": 7146,
      "supposed": 7147,
      "besides": 7148,
      "sickness": 7149,
      "burst": 7150,
      "torment": 7151,
      "幸福就是": 7152,
      "secure": 7153,
      "controll": 7154,
      "corresponding": 7155,
      "odd": 7156,
      "odds": 7157,
      "instruction": 7158,
      "instruments": 7159,
      "avoidance": 7160,
      "cherish": 7161,
      "harsh": 7162,
      "steps": 7163,
      "drums": 7164,
      "pleasing": 7165,
      "ront": 7166,
      "Among": 7167,
      "Exeter": 7168,
      "camest": 7169,
      "Worthy": 7170,
      "suspicion": 7171,
      "obedient": 7172,
      "arrived": 7173,
      "prosperous": 7174,
      "DORCAS": 7175,
      "Volsce": 7176,
      "Six": 7177,
      "amazed": 7178,
      "hungry": 7179,
      "功能就": 7180,
      "committed": 7181,
      "powers": 7182,
      "collaborative": 7183,
      "Dorset": 7184,
      "difficult": 7185,
      "philoso": 7186,
      "passage": 7187,
      "scope": 7188,
      "captain": 7189,
      "Sicilia": 7190,
      "thief": 7191,
      "maintain": 7192,
      "perpetual": 7193,
      "Naples": 7194,
      "knife": 7195,
      "sceptre": 7196,
      "havior": 7197,
      "hospital": 7198,
      "manifest": 7199,
      "wholesome": 7200,
      "monstrous": 7201,
      "manufacturing": 7202,
      "treacherous": 7203,
      "NORFOLK": 7204,
      "14": 7205,
      "18": 7206,
      "20": 7207,
      "66": 7208,
      "Ber": 7209,
      "Bus": 7210,
      "Bra": 7211,
      "Bring": 7212,
      "Car": 7213,
      "Down": 7214,
      "FERD": 7215,
      "Froth": 7216,
      "GH": 7217,
      "Grand": 7218,
      "Ghost": 7219,
      "Hunts": 7220,
      "Ire": 7221,
      "Jes": 7222,
      "Jack": 7223,
      "Lit": 7224,
      "Making": 7225,
      "NSO": 7226,
      "Oh": 7227,
      "Over": 7228,
      "Rat": 7229,
      "Rep": 7230,
      "SET": 7231,
      "Stri": 7232,
      "Time": 7233,
      "Vi": 7234,
      "Vill": 7235,
      "Wilt": 7236,
      "alike": 7237,
      "aunt": 7238,
      "bab": 7239,
      "bread": 7240,
      "bio": 7241,
      "bours": 7242,
      "chast": 7243,
      "cliff": 7244,
      "dower": 7245,
      "fed": 7246,
      "fran": 7247,
      "freed": 7248,
      "gence": 7249,
      "hunt": 7250,
      "ivity": 7251,
      "knot": 7252,
      "kid": 7253,
      "lark": 7254,
      "mes": 7255,
      "mand": 7256,
      "mess": 7257,
      "oak": 7258,
      "pu": 7259,
      "pho": 7260,
      "pill": 7261,
      "pil": 7262,
      "port": 7263,
      "rend": 7264,
      "swell": 7265,
      "sna": 7266,
      "sore": 7267,
      "south": 7268,
      "tum": 7269,
      "task": 7270,
      "ug": 7271,
      "vive": 7272,
      "vows": 7273,
      "west": 7274,
      "yo": 7275,
      "一生": 7276,
      "不去": 7277,
      "不断": 7278,
      "不过": 7279,
      "世上": 7280,
      "两个": 7281,
      "习惯": 7282,
      "传统": 7283,
      "你也": 7284,
      "你想": 7285,
      "你自己": 7286,
      "保证": 7287,
      "关注": 7288,
      "函数": 7289,
      "制造": 7290,
      "势场": 7291,
      "参数": 7292,
      "参考": 7293,
      "双臂": 7294,
      "变化": 7295,
      "句话": 7296,
      "在复杂": 7297,
      "坐在": 7298,
      "基础": 7299,
      "好了": 7300,
      "如上图": 7301,
      "学会": 7302,
      "家人": 7303,
      "帮助": 7304,
      "微笑": 7305,
      "心里": 7306,
      "性与": 7307,
      "成了": 7308,
      "所有": 7309,
      "所具有的": 7310,
      "找到": 7311,
      "拍摄": 7312,
      "教育": 7313,
      "有些": 7314,
      "有时": 7315,
      "有什么": 7316,
      "概念": 7317,
      "流量": 7318,
      "理解": 7319,
      "男孩": 7320,
      "的最": 7321,
      "眼泪": 7322,
      "祖父": 7323,
      "突然": 7324,
      "美丽": 7325,
      "能量": 7326,
      "营养": 7327,
      "记住": 7328,
      "证明": 7329,
      "那这个人": 7330,
      "都不": 7331,
      "采用": 7332,
      "障碍": 7333,
      "ino": 7334,
      "inst": 7335,
      "orous": 7336,
      "ortion": 7337,
      "enforce": 7338,
      "ising": 7339,
      "island": 7340,
      "aring": 7341,
      "attempt": 7342,
      "essed": 7343,
      "toy": 7344,
      "melt": 7345,
      "heat": 7346,
      "rey": 7347,
      "rebell": 7348,
      "nobl": 7349,
      "nobly": 7350,
      "level": 7351,
      "bethink": 7352,
      "chan": 7353,
      "asking": 7354,
      "assured": 7355,
      "forbear": 7356,
      "fords": 7357,
      "iring": 7358,
      "lier": 7359,
      "lied": 7360,
      "liament": 7361,
      "uture": 7362,
      "entire": 7363,
      "aded": 7364,
      "urged": 7365,
      "fears": 7366,
      "feather": 7367,
      "unate": 7368,
      "unjust": 7369,
      "locks": 7370,
      "peers": 7371,
      "peach": 7372,
      "INAND": 7373,
      "idence": 7374,
      "aming": 7375,
      "suing": 7376,
      "hers": 7377,
      "conver": 7378,
      "concer": 7379,
      "concept": 7380,
      "contempt": 7381,
      "ruth": 7382,
      "shower": 7383,
      "shines": 7384,
      "commission": 7385,
      "tast": 7386,
      "tame": 7387,
      "ulting": 7388,
      "antly": 7389,
      "caught": 7390,
      "iling": 7391,
      "perforce": 7392,
      "perhaps": 7393,
      "lovely": 7394,
      "dim": 7395,
      "divided": 7396,
      "provo": 7397,
      "provided": 7398,
      "knowing": 7399,
      "thereby": 7400,
      "aged": 7401,
      "fierce": 7402,
      "speaking": 7403,
      "apparent": 7404,
      "tooth": 7405,
      "abhor": 7406,
      "expl": 7407,
      "exchange": 7408,
      "shoulder": 7409,
      "ount": 7410,
      "mary": 7411,
      "resulting": 7412,
      "whereof": 7413,
      "county": 7414,
      "newly": 7415,
      "older": 7416,
      "merri": 7417,
      "grat": 7418,
      "grass": 7419,
      "audi": 7420,
      "wrought": 7421,
      "offended": 7422,
      "hasty": 7423,
      "immortal": 7424,
      "warlike": 7425,
      "scal": 7426,
      "score": 7427,
      "cloud": 7428,
      "north": 7429,
      "puts": 7430,
      "parliament": 7431,
      "contain": 7432,
      "liter": 7433,
      "rights": 7434,
      "tribut": 7435,
      "talking": 7436,
      "shield": 7437,
      "eming": 7438,
      "pursue": 7439,
      "younger": 7440,
      "youngest": 7441,
      "jewel": 7442,
      "minds": 7443,
      "bank": 7444,
      "Until": 7445,
      "itional": 7446,
      "virgin": 7447,
      "braw": 7448,
      "closed": 7449,
      "busy": 7450,
      "doub": 7451,
      "stock": 7452,
      "interest": 7453,
      "brid": 7454,
      "atience": 7455,
      "smiles": 7456,
      "GREEN": 7457,
      "doesn": 7458,
      "soundly": 7459,
      "growing": 7460,
      "sends": 7461,
      "hanged": 7462,
      "revenged": 7463,
      "Conspir": 7464,
      "accused": 7465,
      "surpr": 7466,
      "sadness": 7467,
      "Rosal": 7468,
      "groans": 7469,
      "profan": 7470,
      "articles": 7471,
      "artificial": 7472,
      "000": 7473,
      "weakness": 7474,
      "aboard": 7475,
      "Mean": 7476,
      "ALONSO": 7477,
      "bottom": 7478,
      "trembling": 7479,
      "bigger": 7480,
      "slaves": 7481,
      "proportion": 7482,
      "Came": 7483,
      "thrice": 7484,
      "Romans": 7485,
      "functions": 7486,
      "Pomfret": 7487,
      "satisfy": 7488,
      "salt": 7489,
      "grieve": 7490,
      "grievous": 7491,
      "fires": 7492,
      "occup": 7493,
      "就会缺失": 7494,
      "avoided": 7495,
      "RREL": 7496,
      "darest": 7497,
      "regard": 7498,
      "neys": 7499,
      "reverence": 7500,
      "TYRREL": 7501,
      "affections": 7502,
      "thirty": 7503,
      "stitute": 7504,
      "Everyone": 7505,
      "gifts": 7506,
      "多机器人协同": 7507,
      "entertainment": 7508,
      "About": 7509,
      "Account": 7510,
      "DORSET": 7511,
      "lusty": 7512,
      "environments": 7513,
      "haply": 7514,
      "logical": 7515,
      "completely": 7516,
      "introverts": 7517,
      "introverted": 7518,
      "achieve": 7519,
      "具有的功能就": 7520,
      "affli": 7521,
      "工艺约束": 7522,
      "机能就会缺失": 7523,
      "stroke": 7524,
      "whisper": 7525,
      "每个人都": 7526,
      "protector": 7527,
      "technology": 7528,
      "vault": 7529,
      "attention": 7530,
      "constraints": 7531,
      "renowned": 7532,
      "iliar": 7533,
      "imprisonment": 7534,
      "Africa": 7535,
      "AEdile": 7536,
      "boots": 7537,
      "couple": 7538,
      "sanctu": 7539,
      "dignity": 7540,
      "milk": 7541,
      "如果身体没有": 7542,
      "Milan": 7543,
      "Titus": 7544,
      "index": 7545,
      "mystery": 7546,
      "poetry": 7547,
      "Soldier": 7548,
      "FERDINAND": 7549,
      "Huntsman": 7550,
      "Ireland": 7551,
      "Ratcliff": 7552,
      "pilgri": 7553,
      "所具有的机能就会缺失": 7554,
      "Rosaline": 7555,
      "具有的功能就特别弱": 7556,
      "sanctuary": 7557,
      "),": 7558,
      ";--": 7559,
      "?”": 7560,
      "Cour": 7561,
      "Chen": 7562,
      "County": 7563,
      "Der": 7564,
      "Draw": 7565,
      "Fo": 7566,
      "Fare": 7567,
      "Fire": 7568,
      "Fair": 7569,
      "Get": 7570,
      "Grace": 7571,
      "Hang": 7572,
      "LIS": 7573,
      "Later": 7574,
      "Makes": 7575,
      "Part": 7576,
      "Rather": 7577,
      "Sp": 7578,
      "Ste": 7579,
      "Soft": 7580,
      "Tar": 7581,
      "Tri": 7582,
      "Twere": 7583,
      "aim": 7584,
      "bese": 7585,
      "cand": 7586,
      "cest": 7587,
      "coff": 7588,
      "cool": 7589,
      "frow": 7590,
      "fund": 7591,
      "future": 7592,
      "gam": 7593,
      "hoo": 7594,
      "horn": 7595,
      "honey": 7596,
      "iment": 7597,
      "iance": 7598,
      "iving": 7599,
      "iety": 7600,
      "jured": 7601,
      "lent": 7602,
      "lour": 7603,
      "lone": 7604,
      "length": 7605,
      "mers": 7606,
      "mates": 7607,
      "nap": 7608,
      "ointed": 7609,
      "pat": 7610,
      "pup": 7611,
      "pate": 7612,
      "pound": 7613,
      "page": 7614,
      "push": 7615,
      "rrel": 7616,
      "snow": 7617,
      "swo": 7618,
      "scold": 7619,
      "shot": 7620,
      "tarry": 7621,
      "twain": 7622,
      "vast": 7623,
      "wave": 7624,
      "waked": 7625,
      "wakes": 7626,
      "yes": 7627,
      "zz": 7628,
      "一分": 7629,
      "一旦": 7630,
      "五脏": 7631,
      "人工": 7632,
      "仅仅": 7633,
      "依赖": 7634,
      "全部": 7635,
      "几乎": 7636,
      "别人的": 7637,
      "到的": 7638,
      "化为": 7639,
      "医院": 7640,
      "历史": 7641,
      "原因": 7642,
      "原谅": 7643,
      "只能": 7644,
      "哪里": 7645,
      "团队": 7646,
      "在我": 7647,
      "多少": 7648,
      "大多": 7649,
      "女人": 7650,
      "女儿": 7651,
      "女孩": 7652,
      "她的": 7653,
      "好像": 7654,
      "如图": 7655,
      "学生": 7656,
      "家的": 7657,
      "工程": 7658,
      "忘记": 7659,
      "恋爱": 7660,
      "感动": 7661,
      "成长": 7662,
      "我也": 7663,
      "我在": 7664,
      "我要": 7665,
      "我觉得": 7666,
      "探索": 7667,
      "是一种": 7668,
      "有个": 7669,
      "有时候": 7670,
      "正在": 7671,
      "水对": 7672,
      "的算法": 7673,
      "的方式": 7674,
      "直接": 7675,
      "继续": 7676,
      "获得": 7677,
      "规则": 7678,
      "误差": 7679,
      "读书": 7680,
      "质量": 7681,
      "这时候": 7682,
      "道理": 7683,
      "那就": 7684,
      "阳火": 7685,
      "领域": 7686,
      "领导": 7687,
      "验证": 7688,
      "thick": 7689,
      "incen": 7690,
      "inju": 7691,
      "enge": 7692,
      "enant": 7693,
      "enna": 7694,
      "ists": 7695,
      "isbury": 7696,
      "ared": 7697,
      "attain": 7698,
      "esar": 7699,
      "llen": 7700,
      "lling": 7701,
      "stout": 7702,
      "stage": 7703,
      "melan": 7704,
      "heur": 7705,
      "remor": 7706,
      "rejo": 7707,
      "reput": 7708,
      "iter": 7709,
      "vet": 7710,
      "leg": 7711,
      "betr": 7712,
      "begu": 7713,
      "betimes": 7714,
      "behavior": 7715,
      "rob": 7716,
      "assi": 7717,
      "aspect": 7718,
      "assure": 7719,
      "forswear": 7720,
      "forfeit": 7721,
      "edge": 7722,
      "hie": 7723,
      "owl": 7724,
      "irt": 7725,
      "iron": 7726,
      "lift": 7727,
      "liken": 7728,
      "utenant": 7729,
      "weal": 7730,
      "notice": 7731,
      "deck": 7732,
      "decl": 7733,
      "detest": 7734,
      "decis": 7735,
      "aloud": 7736,
      "alities": 7737,
      "alack": 7738,
      "hated": 7739,
      "river": 7740,
      "ripe": 7741,
      "adop": 7742,
      "alliance": 7743,
      "etite": 7744,
      "tiest": 7745,
      "urge": 7746,
      "rail": 7747,
      "holp": 7748,
      "lover": 7749,
      "iders": 7750,
      "suck": 7751,
      "butt": 7752,
      "shaped": 7753,
      "conceive": 7754,
      "conference": 7755,
      "ending": 7756,
      "ruled": 7757,
      "arts": 7758,
      "moves": 7759,
      "shun": 7760,
      "team": 7761,
      "teous": 7762,
      "quant": 7763,
      "ulate": 7764,
      "bleeding": 7765,
      "illy": 7766,
      "board": 7767,
      "goal": 7768,
      "ilar": 7769,
      "ively": 7770,
      "saved": 7771,
      "civil": 7772,
      "prov": 7773,
      "progra": 7774,
      "blown": 7775,
      "blunt": 7776,
      "bladder": 7777,
      "earn": 7778,
      "fice": 7779,
      "vessel": 7780,
      "abide": 7781,
      "Noble": 7782,
      "spy": 7783,
      "graves": 7784,
      "muster": 7785,
      "pling": 7786,
      "discre": 7787,
      "dissem": 7788,
      "ics": 7789,
      "acy": 7790,
      "acquaint": 7791,
      "bade": 7792,
      "desires": 7793,
      "counc": 7794,
      "breed": 7795,
      "misfortune": 7796,
      "mistrust": 7797,
      "augh": 7798,
      "wrink": 7799,
      "fairer": 7800,
      "fairest": 7801,
      "parting": 7802,
      "parted": 7803,
      "Marian": 7804,
      "flourish": 7805,
      "optim": 7806,
      "optic": 7807,
      "scri": 7808,
      "whip": 7809,
      "needed": 7810,
      "ullus": 7811,
      "angel": 7812,
      "price": 7813,
      "restra": 7814,
      "happens": 7815,
      "native": 7816,
      "什么是": 7817,
      "minded": 7818,
      "subtle": 7819,
      "substance": 7820,
      "Proceed": 7821,
      "laws": 7822,
      "falling": 7823,
      "confir": 7824,
      "brace": 7825,
      "posing": 7826,
      "因为他们": 7827,
      "monu": 7828,
      "stopp": 7829,
      "drew": 7830,
      "craft": 7831,
      "grew": 7832,
      "versity": 7833,
      "dowry": 7834,
      "weeps": 7835,
      "appetite": 7836,
      "stronger": 7837,
      "generate": 7838,
      "appeal": 7839,
      "windows": 7840,
      "acts": 7841,
      "actually": 7842,
      "falsehood": 7843,
      "commons": 7844,
      "virtues": 7845,
      "Tyrrel": 7846,
      "sovereignty": 7847,
      "Although": 7848,
      "Sometimes": 7849,
      "kisses": 7850,
      "这样做": 7851,
      "choly": 7852,
      "titles": 7853,
      "Read": 7854,
      "sooner": 7855,
      "Cannot": 7856,
      "oaths": 7857,
      "tempest": 7858,
      "pick": 7859,
      "picture": 7860,
      "faithful": 7861,
      "Commend": 7862,
      "familiar": 7863,
      "volume": 7864,
      "birds": 7865,
      "defence": 7866,
      "heirs": 7867,
      "signific": 7868,
      "tremble": 7869,
      "burnt": 7870,
      "burning": 7871,
      "torch": 7872,
      "lected": 7873,
      "beholding": 7874,
      "mouths": 7875,
      "sharing": 7876,
      "Caesar": 7877,
      "barren": 7878,
      "pitch": 7879,
      "breathed": 7880,
      "ggest": 7881,
      "leaving": 7882,
      "finally": 7883,
      "gallant": 7884,
      "regal": 7885,
      "middle": 7886,
      "bridegroom": 7887,
      "cords": 7888,
      "elements": 7889,
      "关节速度": 7890,
      "的时间去": 7891,
      "解决方案": 7892,
      "beasts": 7893,
      "flex": 7894,
      "trumpet": 7895,
      "eagle": 7896,
      "ignorance": 7897,
      "necessary": 7898,
      "conceit": 7899,
      "environment": 7900,
      "profession": 7901,
      "achie": 7902,
      "之间的": 7903,
      "directly": 7904,
      "Better": 7905,
      "challeng": 7906,
      "challenge": 7907,
      "refuse": 7908,
      "equal": 7909,
      "lungs": 7910,
      "提出的": 7911,
      "figure": 7912,
      "determined": 7913,
      "deceit": 7914,
      "knaves": 7915,
      "skills": 7916,
      "tyranny": 7917,
      "Flor": 7918,
      "ballad": 7919,
      "过程中": 7920,
      "wondrous": 7921,
      "pronounce": 7922,
      "industry": 7923,
      "penitent": 7924,
      "stabb": 7925,
      "devotion": 7926,
      "appointed": 7927,
      "Fourth": 7928,
      "ceremon": 7929,
      "patricians": 7930,
      "escape": 7931,
      "stamp": 7932,
      "reconci": 7933,
      "ambition": 7934,
      "trajectory": 7935,
      "privilege": 7936,
      "clothes": 7937,
      "Another": 7938,
      "Elements": 7939,
      "Salisbury": 7940,
      "learning": 7941,
      "transport": 7942,
      "immediately": 7943,
      "Vienna": 7944,
      "yoke": 7945,
      "rebellion": 7946,
      "explor": 7947,
      "Cheng": 7948,
      "Derby": 7949,
      "froward": 7950,
      "原谅我": 7951,
      "melancholy": 7952,
      "heuristic": 7953,
      ".--": 7954,
      "19": 7955,
      "50": 7956,
      "AD": 7957,
      "Cry": 7958,
      "CLEO": 7959,
      "Cali": 7960,
      "Dad": 7961,
      "Fish": 7962,
      "FRO": 7963,
      "Gra": 7964,
      "Gree": 7965,
      "Him": 7966,
      "Hail": 7967,
      "IT": 7968,
      "Lie": 7969,
      "Larti": 7970,
      "Mo": 7971,
      "Old": 7972,
      "RIAN": 7973,
      "Sit": 7974,
      "Sur": 7975,
      "Sus": 7976,
      "Sound": 7977,
      "Sund": 7978,
      "Tush": 7979,
      "Tullus": 7980,
      "UGH": 7981,
      "Ven": 7982,
      "Val": 7983,
      "Whe": 7984,
      "WIL": 7985,
      "apo": 7986,
      "bath": 7987,
      "bag": 7988,
      "bation": 7989,
      "brown": 7990,
      "bits": 7991,
      "bought": 7992,
      "block": 7993,
      "cue": 7994,
      "cary": 7995,
      "chaste": 7996,
      "een": 7997,
      "eem": 7998,
      "fts": 7999,
      "fits": 8000,
      "glo": 8001,
      "gid": 8002,
      "gather": 8003,
      "goose": 8004,
      "hun": 8005,
      "iam": 8006,
      "ians": 8007,
      "ims": 8008,
      "ired": 8009,
      "lu": 8010,
      "mur": 8011,
      "mood": 8012,
      "mong": 8013,
      "mate": 8014,
      "mish": 8015,
      "mits": 8016,
      "nes": 8017,
      "nets": 8018,
      "narrow": 8019,
      "ope": 8020,
      "patter": 8021,
      "sess": 8022,
      "swer": 8023,
      "swain": 8024,
      "swore": 8025,
      "twill": 8026,
      "tard": 8027,
      "tres": 8028,
      "tles": 8029,
      "uan": 8030,
      "vig": 8031,
      "ware": 8032,
      "一辈子": 8033,
      "不多": 8034,
      "不求": 8035,
      "之前": 8036,
      "也许": 8037,
      "了我": 8038,
      "了很多": 8039,
      "于是": 8040,
      "人体": 8041,
      "从来": 8042,
      "付出": 8043,
      "伴侣": 8044,
      "修正": 8045,
      "偶尔": 8046,
      "共同": 8047,
      "关于": 8048,
      "准备": 8049,
      "分析": 8050,
      "包括": 8051,
      "化的": 8052,
      "协作": 8053,
      "吃饭": 8054,
      "回家": 8055,
      "在家": 8056,
      "在这": 8057,
      "垃圾": 8058,
      "对水": 8059,
      "小时": 8060,
      "就可以": 8061,
      "局部": 8062,
      "工具": 8063,
      "常常": 8064,
      "并且": 8065,
      "很大": 8066,
      "微信": 8067,
      "思考": 8068,
      "意思": 8069,
      "我对": 8070,
      "手术": 8071,
      "扰动": 8072,
      "承诺": 8073,
      "放弃": 8074,
      "显著": 8075,
      "最优": 8076,
      "最大的": 8077,
      "李箱": 8078,
      "榴莲": 8079,
      "每次": 8080,
      "求解": 8081,
      "活动": 8082,
      "浪费": 8083,
      "深刻": 8084,
      "温暖": 8085,
      "爱上": 8086,
      "电视": 8087,
      "百万": 8088,
      "的协同": 8089,
      "真实": 8090,
      "离散": 8091,
      "经常": 8092,
      "给他": 8093,
      "给她": 8094,
      "自动": 8095,
      "至少": 8096,
      "融合": 8097,
      "行李箱": 8098,
      "表现": 8099,
      "表达": 8100,
      "许多": 8101,
      "诗歌": 8102,
      "说话": 8103,
      "调整": 8104,
      "输入": 8105,
      "过来": 8106,
      "过的": 8107,
      "连续": 8108,
      "那里": 8109,
      "重新": 8110,
      "针对": 8111,
      "阳光": 8112,
      "除了": 8113,
      "革命": 8114,
      "鱼说": 8115,
      "鱼对水": 8116,
      "？”": 8117,
      "thrown": 8118,
      "ero": 8119,
      "invent": 8120,
      "infection": 8121,
      "instead": 8122,
      "ancing": 8123,
      "anointed": 8124,
      "thecary": 8125,
      "isted": 8126,
      "estim": 8127,
      "lla": 8128,
      "lled": 8129,
      "toad": 8130,
      "mew": 8131,
      "meal": 8132,
      "memb": 8133,
      "reco": 8134,
      "reap": 8135,
      "repose": 8136,
      "revel": 8137,
      "removed": 8138,
      "retire": 8139,
      "secre": 8140,
      "sepul": 8141,
      "seldom": 8142,
      "nod": 8143,
      "itch": 8144,
      "leap": 8145,
      "league": 8146,
      "chat": 8147,
      "robb": 8148,
      "assed": 8149,
      "cel": 8150,
      "forms": 8151,
      "formed": 8152,
      "deaf": 8153,
      "alk": 8154,
      "alo": 8155,
      "alms": 8156,
      "withdraw": 8157,
      "soil": 8158,
      "rian": 8159,
      "rial": 8160,
      "rible": 8161,
      "adjust": 8162,
      "coat": 8163,
      "thern": 8164,
      "tie": 8165,
      "urally": 8166,
      "ushed": 8167,
      "rap": 8168,
      "dove": 8169,
      "dozen": 8170,
      "feign": 8171,
      "unk": 8172,
      "uncles": 8173,
      "uncomfortable": 8174,
      "load": 8175,
      "local": 8176,
      "lovest": 8177,
      "male": 8178,
      "pee": 8179,
      "amity": 8180,
      "aments": 8181,
      "ambit": 8182,
      "neat": 8183,
      "manage": 8184,
      "wills": 8185,
      "suitor": 8186,
      "sullen": 8187,
      "shapes": 8188,
      "convers": 8189,
      "labor": 8190,
      "moder": 8191,
      "composition": 8192,
      "ously": 8193,
      "ilities": 8194,
      "sau": 8195,
      "selfsame": 8196,
      "project": 8197,
      "proclam": 8198,
      "seemed": 8199,
      "LOUGH": 8200,
      "somewhat": 8201,
      "foreign": 8202,
      "spec": 8203,
      "spect": 8204,
      "wolf": 8205,
      "abund": 8206,
      "abused": 8207,
      "graph": 8208,
      "angling": 8209,
      "disgu": 8210,
      "dissol": 8211,
      "dismal": 8212,
      "disease": 8213,
      "ically": 8214,
      "accursed": 8215,
      "deaths": 8216,
      "anyone": 8217,
      "vied": 8218,
      "Behold": 8219,
      "marks": 8220,
      "descent": 8221,
      "results": 8222,
      "lesser": 8223,
      "lesson": 8224,
      "lessons": 8225,
      "Off": 8226,
      "heartily": 8227,
      "Italy": 8228,
      "merch": 8229,
      "mischance": 8230,
      "stranger": 8231,
      "intest": 8232,
      "greatness": 8233,
      "jot": 8234,
      "imble": 8235,
      "improve": 8236,
      "warri": 8237,
      "scand": 8238,
      "fearing": 8239,
      "redress": 8240,
      "pause": 8241,
      "longs": 8242,
      "fortunate": 8243,
      "named": 8244,
      "sweeter": 8245,
      "Anon": 8246,
      "heavenly": 8247,
      "parall": 8248,
      "settled": 8249,
      "MENES": 8250,
      "litter": 8251,
      "graced": 8252,
      "steeds": 8253,
      "couldn": 8254,
      "Thank": 8255,
      "household": 8256,
      "happily": 8257,
      "Does": 8258,
      "quired": 8259,
      "charm": 8260,
      "helm": 8261,
      "overcome": 8262,
      "purchase": 8263,
      "keeping": 8264,
      "dearly": 8265,
      "dearest": 8266,
      "Uncle": 8267,
      "following": 8268,
      "senses": 8269,
      "coron": 8270,
      "corrupt": 8271,
      "William": 8272,
      "personal": 8273,
      "killed": 8274,
      "garland": 8275,
      "bush": 8276,
      "reply": 8277,
      "irect": 8278,
      "career": 8279,
      "careful": 8280,
      "careless": 8281,
      "beauteous": 8282,
      "sorrows": 8283,
      "visage": 8284,
      "crack": 8285,
      "craves": 8286,
      "China": 8287,
      "create": 8288,
      "creation": 8289,
      "waves": 8290,
      "strive": 8291,
      "object": 8292,
      "apply": 8293,
      "griefs": 8294,
      "countrymen": 8295,
      "sleeping": 8296,
      "thankful": 8297,
      "Life": 8298,
      "growth": 8299,
      "Teacher": 8300,
      "plainly": 8301,
      "writer": 8302,
      "hangs": 8303,
      "revenue": 8304,
      "控制器": 8305,
      "chose": 8306,
      "chosen": 8307,
      "trusty": 8308,
      "crying": 8309,
      "yielded": 8310,
      "sufficient": 8311,
      "Didst": 8312,
      "profound": 8313,
      "sights": 8314,
      "understanding": 8315,
      "succeed": 8316,
      "vanity": 8317,
      "skin": 8318,
      "damn": 8319,
      "biggest": 8320,
      "whit": 8321,
      "wooing": 8322,
      "executed": 8323,
      "fourteen": 8324,
      "created": 8325,
      "colle": 8326,
      "successful": 8327,
      "很多人": 8328,
      "shared": 8329,
      "People": 8330,
      "borrow": 8331,
      "embra": 8332,
      "MPC优化": 8333,
      "Perdit": 8334,
      "allowing": 8335,
      "blessing": 8336,
      "Happy": 8337,
      "frowns": 8338,
      "servants": 8339,
      "multiple": 8340,
      "innoc": 8341,
      "advance": 8342,
      "systems": 8343,
      "crush": 8344,
      "ctively": 8345,
      "的一切": 8346,
      "supply": 8347,
      "关节空间": 8348,
      "methods": 8349,
      "shadows": 8350,
      "executioner": 8351,
      "运动学预测模型": 8352,
      "mirth": 8353,
      "scape": 8354,
      "obstacles": 8355,
      "Comp": 8356,
      "pierce": 8357,
      "conceal": 8358,
      "Official": 8359,
      "imagine": 8360,
      "imagination": 8361,
      "considered": 8362,
      "双机械臂协同": 8363,
      "strokes": 8364,
      "revolution": 8365,
      "extremity": 8366,
      "framework": 8367,
      "shrewd": 8368,
      "elderly": 8369,
      "waiting": 8370,
      "prophet": 8371,
      "Laur": 8372,
      "axe": 8373,
      "frost": 8374,
      "wager": 8375,
      "安全性": 8376,
      "infant": 8377,
      "inherit": 8378,
      "companion": 8379,
      "merely": 8380,
      "nursing": 8381,
      "modesty": 8382,
      "operation": 8383,
      "documentaries": 8384,
      "furnish": 8385,
      "线性化": 8386,
      "instantly": 8387,
      "robotic": 8388,
      "traditional": 8389,
      "smoke": 8390,
      "repeal": 8391,
      "Return": 8392,
      "development": 8393,
      "ordinary": 8394,
      "saints": 8395,
      "启发式": 8396,
      "stretch": 8397,
      "believed": 8398,
      "limbs": 8399,
      "adversaries": 8400,
      "policy": 8401,
      "group": 8402,
      "Bushy": 8403,
      "Villain": 8404,
      "babes": 8405,
      "freedom": 8406,
      "Conspirator": 8407,
      "Follow": 8408,
      "fundament": 8409,
      "水对鱼说": 8410,
      "remorse": 8411,
      "betray": 8412,
      "Mariana": 8413,
      "monument": 8414,
      "ADRIAN": 8415,
      "CLEOMENES": 8416,
      "FROTH": 8417,
      "Lartius": 8418,
      "Sunday": 8419,
      "Whether": 8420,
      "WILLOUGH": 8421,
      "trespass": 8422,
      "鱼对水说": 8423,
      "members": 8424,
      "sepulch": 8425,
      "ambitious": 8426,
      "Perdita": 8427,
      "WILLOUGHBY": 8428,
      "!”": 8429,
      "%，": 8430,
      "17": 8431,
      "30": 8432,
      "AM": 8433,
      "Ba": 8434,
      "Ben": 8435,
      "Bur": 8436,
      "BAR": 8437,
      "Chi": 8438,
      "Cast": 8439,
      "Dou": 8440,
      "Dar": 8441,
      "Ely": 8442,
      "Ever": 8443,
      "Escal": 8444,
      "Fal": 8445,
      "Find": 8446,
      "Full": 8447,
      "IB": 8448,
      "MOR": 8449,
      "Mino": 8450,
      "NARD": 8451,
      "Pre": 8452,
      "Que": 8453,
      "Red": 8454,
      "RUT": 8455,
      "Raven": 8456,
      "Su": 8457,
      "Send": 8458,
      "Tra": 8459,
      "Toward": 8460,
      "Vaugh": 8461,
      "Wr": 8462,
      "Wed": 8463,
      "Wil": 8464,
      "afe": 8465,
      "bere": 8466,
      "bru": 8467,
      "bate": 8468,
      "bore": 8469,
      "coo": 8470,
      "card": 8471,
      "cers": 8472,
      "cook": 8473,
      "dess": 8474,
      "elo": 8475,
      "eight": 8476,
      "ems": 8477,
      "fu": 8478,
      "fes": 8479,
      "front": 8480,
      "gers": 8481,
      "hou": 8482,
      "hare": 8483,
      "hrew": 8484,
      "jk": 8485,
      "lur": 8486,
      "lves": 8487,
      "liness": 8488,
      "lengthen": 8489,
      "mould": 8490,
      "mult": 8491,
      "miles": 8492,
      "nup": 8493,
      "numb": 8494,
      "pull": 8495,
      "pised": 8496,
      "pular": 8497,
      "passed": 8498,
      "sive": 8499,
      "smother": 8500,
      "sings": 8501,
      "sought": 8502,
      "shop": 8503,
      "silly": 8504,
      "vor": 8505,
      "vul": 8506,
      "whor": 8507,
      "yon": 8508,
      "yester": 8509,
      "zes": 8510,
      "……": 8511,
      "一刻": 8512,
      "丈夫": 8513,
      "三个": 8514,
      "上去": 8515,
      "下去": 8516,
      "下图": 8517,
      "不知": 8518,
      "世纪": 8519,
      "于我": 8520,
      "从而": 8521,
      "会有": 8522,
      "会让你": 8523,
      "但我": 8524,
      "位姿": 8525,
      "作品": 8526,
      "作家": 8527,
      "你做": 8528,
      "你很": 8529,
      "你所": 8530,
      "你看": 8531,
      "你要": 8532,
      "依旧": 8533,
      "偏差": 8534,
      "做一个": 8535,
      "做什么": 8536,
      "做的事情": 8537,
      "光学": 8538,
      "光的": 8539,
      "具有": 8540,
      "写的": 8541,
      "决定": 8542,
      "初始": 8543,
      "前的": 8544,
      "即使": 8545,
      "发展": 8546,
      "发生": 8547,
      "另一": 8548,
      "同样": 8549,
      "吸收": 8550,
      "困难": 8551,
      "国家": 8552,
      "在一起": 8553,
      "城市": 8554,
      "多的": 8555,
      "失败": 8556,
      "好处": 8557,
      "实验": 8558,
      "害怕": 8559,
      "富有": 8560,
      "导致": 8561,
      "小孩": 8562,
      "尝试": 8563,
      "就把": 8564,
      "就有": 8565,
      "就要": 8566,
      "就跟": 8567,
      "岁的时候": 8568,
      "平台": 8569,
      "并不": 8570,
      "引擎": 8571,
      "往往": 8572,
      "得不": 8573,
      "忘了": 8574,
      "怀疑": 8575,
      "态度": 8576,
      "我将": 8577,
      "我知道": 8578,
      "或许": 8579,
      "抬头": 8580,
      "挑榴莲": 8581,
      "收益": 8582,
      "改进": 8583,
      "是个": 8584,
      "最终": 8585,
      "未来": 8586,
      "本研究": 8587,
      "此人": 8588,
      "比较": 8589,
      "爷爷": 8590,
      "牙齿": 8591,
      "独立": 8592,
      "独自": 8593,
      "生产": 8594,
      "生存": 8595,
      "界的": 8596,
      "的关键": 8597,
      "的声音": 8598,
      "的内容": 8599,
      "相反": 8600,
      "眼睛": 8601,
      "等待": 8602,
      "答案": 8603,
      "给自己": 8604,
      "绝对": 8605,
      "统一": 8606,
      "考虑": 8607,
      "聪明": 8608,
      "自由": 8609,
      "艺术": 8610,
      "见过": 8611,
      "让人": 8612,
      "该算法": 8613,
      "超过": 8614,
      "过了": 8615,
      "还会": 8616,
      "这一点": 8617,
      "进去": 8618,
      "量子": 8619,
      "陌生的": 8620,
      "难以": 8621,
      "高效": 8622,
      "鲁棒": 8623,
      "thre": 8624,
      "thirst": 8625,
      "thie": 8626,
      "thumb": 8627,
      "era": 8628,
      "ert": 8629,
      "erved": 8630,
      "infer": 8631,
      "independ": 8632,
      "injury": 8633,
      "influ": 8634,
      "ank": 8635,
      "anch": 8636,
      "theme": 8637,
      "ories": 8638,
      "ense": 8639,
      "encies": 8640,
      "isting": 8641,
      "arrest": 8642,
      "atest": 8643,
      "ontes": 8644,
      "toil": 8645,
      "andon": 8646,
      "stan": 8647,
      "stick": 8648,
      "stale": 8649,
      "staff": 8650,
      "metal": 8651,
      "heap": 8652,
      "heels": 8653,
      "rear": 8654,
      "recomp": 8655,
      "regi": 8656,
      "represent": 8657,
      "recover": 8658,
      "sey": 8659,
      "sear": 8660,
      "severe": 8661,
      "seeds": 8662,
      "nobility": 8663,
      "itiff": 8664,
      "hail": 8665,
      "hamed": 8666,
      "haught": 8667,
      "hazard": 8668,
      "befall": 8669,
      "beams": 8670,
      "chest": 8671,
      "ross": 8672,
      "roses": 8673,
      "ashamed": 8674,
      "forest": 8675,
      "forty": 8676,
      "educ": 8677,
      "lick": 8678,
      "liking": 8679,
      "livery": 8680,
      "likes": 8681,
      "utch": 8682,
      "wears": 8683,
      "noted": 8684,
      "defici": 8685,
      "keley": 8686,
      "soms": 8687,
      "ades": 8688,
      "coal": 8689,
      "covery": 8690,
      "coach": 8691,
      "etch": 8692,
      "etition": 8693,
      "tiv": 8694,
      "usual": 8695,
      "usually": 8696,
      "raven": 8697,
      "rapier": 8698,
      "dogs": 8699,
      "feat": 8700,
      "fever": 8701,
      "unfold": 8702,
      "los": 8703,
      "lovers": 8704,
      "losing": 8705,
      "pel": 8706,
      "peer": 8707,
      "INE": 8708,
      "esteem": 8709,
      "ided": 8710,
      "ames": 8711,
      "amiss": 8712,
      "nel": 8713,
      "fawn": 8714,
      "sult": 8715,
      "suits": 8716,
      "suggest": 8717,
      "herd": 8718,
      "conne": 8719,
      "ruction": 8720,
      "rules": 8721,
      "lazy": 8722,
      "mom": 8723,
      "shook": 8724,
      "shining": 8725,
      "popular": 8726,
      "text": 8727,
      "upright": 8728,
      "shallow": 8729,
      "blemish": 8730,
      "box": 8731,
      "boast": 8732,
      "caps": 8733,
      "caitiff": 8734,
      "outside": 8735,
      "perni": 8736,
      "goods": 8737,
      "worm": 8738,
      "working": 8739,
      "sav": 8740,
      "sacri": 8741,
      "indi": 8742,
      "dig": 8743,
      "proved": 8744,
      "provide": 8745,
      "progress": 8746,
      "blue": 8747,
      "aken": 8748,
      "Fortune": 8749,
      "sirs": 8750,
      "abuse": 8751,
      "absor": 8752,
      "abandon": 8753,
      "ext": 8754,
      "exist": 8755,
      "except": 8756,
      "exped": 8757,
      "mention": 8758,
      "grain": 8759,
      "plate": 8760,
      "angers": 8761,
      "discourse": 8762,
      "dismiss": 8763,
      "discovery": 8764,
      "accom": 8765,
      "我们在": 8766,
      "我们现在": 8767,
      "tshire": 8768,
      "vio": 8769,
      "bage": 8770,
      "resem": 8771,
      "affords": 8772,
      "whereon": 8773,
      "sweat": 8774,
      "counted": 8775,
      "counsell": 8776,
      "nable": 8777,
      "standard": 8778,
      "prefer": 8779,
      "voli": 8780,
      "vocate": 8781,
      "childish": 8782,
      "caused": 8783,
      "trench": 8784,
      "trunk": 8785,
      "greatly": 8786,
      "job": 8787,
      "imper": 8788,
      "Whereto": 8789,
      "Wherefore": 8790,
      "omit": 8791,
      "stern": 8792,
      "flat": 8793,
      "scatter": 8794,
      "headed": 8795,
      "ctions": 8796,
      "lights": 8797,
      "lightning": 8798,
      "Anne": 8799,
      "parties": 8800,
      "courteous": 8801,
      "contents": 8802,
      "prime": 8803,
      "prick": 8804,
      "holding": 8805,
      "cheap": 8806,
      "friendship": 8807,
      "tricks": 8808,
      "backward": 8809,
      "mightst": 8810,
      "fardel": 8811,
      "pursuit": 8812,
      "madness": 8813,
      "没有你": 8814,
      "tainted": 8815,
      "bud": 8816,
      "naturally": 8817,
      "compli": 8818,
      "tending": 8819,
      "Prove": 8820,
      "bands": 8821,
      "如果我": 8822,
      "就是一个": 8823,
      "gious": 8824,
      "forthwith": 8825,
      "senseless": 8826,
      "earthly": 8827,
      "confidence": 8828,
      "positive": 8829,
      "uding": 8830,
      "helped": 8831,
      "worked": 8832,
      "zeal": 8833,
      "straw": 8834,
      "monster": 8835,
      "meddle": 8836,
      "minutes": 8837,
      "runs": 8838,
      "reasonable": 8839,
      "royalty": 8840,
      "generated": 8841,
      "Licio": 8842,
      "offices": 8843,
      "officers": 8844,
      "foundation": 8845,
      "spot": 8846,
      "spoil": 8847,
      "commonwealth": 8848,
      "Shore": 8849,
      "breathing": 8850,
      "silk": 8851,
      "孩子们": 8852,
      "consort": 8853,
      "suitors": 8854,
      "riches": 8855,
      "valu": 8856,
      "yields": 8857,
      "lamp": 8858,
      "tempor": 8859,
      "tempted": 8860,
      "solving": 8861,
      "returned": 8862,
      "defin": 8863,
      "IDAM": 8864,
      "changes": 8865,
      "covert": 8866,
      "Whiles": 8867,
      "Cambio": 8868,
      "Hadst": 8869,
      "grandsire": 8870,
      "Green": 8871,
      "bowels": 8872,
      "cricket": 8873,
      "praises": 8874,
      "rises": 8875,
      "harmony": 8876,
      "execute": 8877,
      "velvet": 8878,
      "appearing": 8879,
      "appeared": 8880,
      "besto": 8881,
      "burns": 8882,
      "搜索引擎": 8883,
      "suffering": 8884,
      "icians": 8885,
      "walking": 8886,
      "girls": 8887,
      "prettiest": 8888,
      "succession": 8889,
      "eaten": 8890,
      "towns": 8891,
      "约束的": 8892,
      "possession": 8893,
      "pitied": 8894,
      "pitiful": 8895,
      "gging": 8896,
      "realized": 8897,
      "scared": 8898,
      "应该是": 8899,
      "joints": 8900,
      "Leontes": 8901,
      "darkness": 8902,
      "怎么办": 8903,
      "princi": 8904,
      "Wife": 8905,
      "midnight": 8906,
      "如何挑榴莲": 8907,
      "bitterly": 8908,
      "drunken": 8909,
      "fantast": 8910,
      "advanced": 8911,
      "violence": 8912,
      "内向的人": 8913,
      "triumphant": 8914,
      "Justice": 8915,
      "film": 8916,
      "knit": 8917,
      "gladly": 8918,
      "inclined": 8919,
      "churchyard": 8920,
      "goddess": 8921,
      "clearly": 8922,
      "eager": 8923,
      "amongst": 8924,
      "difference": 8925,
      "censure": 8926,
      "真正的": 8927,
      "necessity": 8928,
      "distur": 8929,
      "frighted": 8930,
      "Dido": 8931,
      "Dijk": 8932,
      "winged": 8933,
      "prevented": 8934,
      "physic": 8935,
      "incredi": 8936,
      "versely": 8937,
      "clamour": 8938,
      "guests": 8939,
      "Woe": 8940,
      "nutri": 8941,
      "listening": 8942,
      "ghostly": 8943,
      "shrift": 8944,
      "branch": 8945,
      "statue": 8946,
      "sequence": 8947,
      "belongs": 8948,
      "tyrann": 8949,
      "wander": 8950,
      "redeem": 8951,
      "troops": 8952,
      "Elbow": 8953,
      "weapon": 8954,
      "conjure": 8955,
      "shroud": 8956,
      "cabin": 8957,
      "descend": 8958,
      "organic": 8959,
      "torture": 8960,
      "healthy": 8961,
      "ARCHIDAM": 8962,
      "tapster": 8963,
      "correction": 8964,
      "threatening": 8965,
      "rebels": 8966,
      "dispersed": 8967,
      "philosophy": 8968,
      "Berkeley": 8969,
      "Jesu": 8970,
      "Little": 8971,
      "Strike": 8972,
      "势场法": 8973,
      "ruthless": 8974,
      "audience": 8975,
      "literature": 8976,
      "pilgrimage": 8977,
      "Courage": 8978,
      "Tribunes": 8979,
      "一分钟": 8980,
      "rejoice": 8981,
      "reputation": 8982,
      "likeness": 8983,
      "quantum": 8984,
      "program": 8985,
      "optimal": 8986,
      "confirm": 8987,
      "significantly": 8988,
      "exploration": 8989,
      "Surrey": 8990,
      "global": 8991,
      "giddy": 8992,
      "peevish": 8993,
      "proclamation": 8994,
      "merchant": 8995,
      "intestine": 8996,
      "warriors": 8997,
      "parallel": 8998,
      "coronation": 8999,
      "Laurence": 9000,
      "sepulchre": 9001,
      "BARNARD": 9002,
      "Escalus": 9003,
      "Queen": 9004,
      "RUTLAND": 9005,
      "Towards": 9006,
      "Vaughan": 9007,
      "Wiltshire": 9008,
      "eloqu": 9009,
      "whores": 9010,
      "education": 9011,
      "deficiencies": 9012,
      "pernicious": 9013,
      "Dijkstra": 9014,
      "ARCHIDAMUS": 9015,
      "BARNARDINE": 9016,
      "13": 9017,
      "Abo": 9018,
      "Adie": 9019,
      "Back": 9020,
      "CAR": 9021,
      "CRO": 9022,
      "Dest": 9023,
      "Dian": 9024,
      "EP": 9025,
      "Fit": 9026,
      "Fall": 9027,
      "Fur": 9028,
      "FIT": 9029,
      "GO": 9030,
      "Gard": 9031,
      "Hon": 9032,
      "Hic": 9033,
      "Hie": 9034,
      "IR": 9035,
      "Im": 9036,
      "Ill": 9037,
      "Imp": 9038,
      "Imag": 9039,
      "Lam": 9040,
      "Live": 9041,
      "ME": 9042,
      "Much": 9043,
      "Mars": 9044,
      "Neither": 9045,
      "Nature": 9046,
      "Op": 9047,
      "Pur": 9048,
      "Prep": 9049,
      "Patience": 9050,
      "QP": 9051,
      "Rest": 9052,
      "Rel": 9053,
      "Sy": 9054,
      "Sor": 9055,
      "Sly": 9056,
      "Sta": 9057,
      "Str": 9058,
      "Swear": 9059,
      "South": 9060,
      "Saw": 9061,
      "SCRO": 9062,
      "SIR": 9063,
      "TV": 9064,
      "Ten": 9065,
      "TON": 9066,
      "Touch": 9067,
      "Vouch": 9068,
      "Virt": 9069,
      "WEST": 9070,
      "WAT": 9071,
      "Yield": 9072,
      "ZWAT": 9073,
      "amain": 9074,
      "bay": 9075,
      "bent": 9076,
      "bone": 9077,
      "bul": 9078,
      "bble": 9079,
      "bind": 9080,
      "blast": 9081,
      "bene": 9082,
      "blot": 9083,
      "bishop": 9084,
      "cul": 9085,
      "cult": 9086,
      "dst": 9087,
      "dried": 9088,
      "dash": 9089,
      "egi": 9090,
      "evid": 9091,
      "elect": 9092,
      "ff": 9093,
      "foo": 9094,
      "frequ": 9095,
      "flock": 9096,
      "frank": 9097,
      "fray": 9098,
      "gust": 9099,
      "gap": 9100,
      "gund": 9101,
      "gged": 9102,
      "iven": 9103,
      "ican": 9104,
      "jor": 9105,
      "las": 9106,
      "lance": 9107,
      "mum": 9108,
      "mask": 9109,
      "matic": 9110,
      "phe": 9111,
      "pour": 9112,
      "pper": 9113,
      "pts": 9114,
      "rar": 9115,
      "rad": 9116,
      "rhy": 9117,
      "ration": 9118,
      "ratch": 9119,
      "rist": 9120,
      "soo": 9121,
      "sam": 9122,
      "sides": 9123,
      "tar": 9124,
      "tough": 9125,
      "udes": 9126,
      "vine": 9127,
      "vass": 9128,
      "wks": 9129,
      "yuan": 9130,
      "》，": 9131,
      "一张": 9132,
      "上了": 9133,
      "上帝": 9134,
      "不到": 9135,
      "不够": 9136,
      "不好": 9137,
      "不敢": 9138,
      "不用": 9139,
      "个月": 9140,
      "主义": 9141,
      "主管": 9142,
      "之外": 9143,
      "也有": 9144,
      "也没有": 9145,
      "了一种": 9146,
      "二十": 9147,
      "享受": 9148,
      "他在": 9149,
      "任务": 9150,
      "传感": 9151,
      "伤害": 9152,
      "位置": 9153,
      "作者": 9154,
      "你不": 9155,
      "你能": 9156,
      "你就会": 9157,
      "使我": 9158,
      "例子": 9159,
      "值得": 9160,
      "具体": 9161,
      "出去": 9162,
      "出的": 9163,
      "分为": 9164,
      "勇气": 9165,
      "医生": 9166,
      "卡尔": 9167,
      "可行": 9168,
      "唯一": 9169,
      "图搜索": 9170,
      "在一": 9171,
      "在于": 9172,
      "在外": 9173,
      "在的": 9174,
      "在线": 9175,
      "在一个": 9176,
      "在我的": 9177,
      "地去": 9178,
      "坚持": 9179,
      "大学": 9180,
      "大海": 9181,
      "大量": 9182,
      "大部分": 9183,
      "太多": 9184,
      "奖状": 9185,
      "她妈妈": 9186,
      "好好": 9187,
      "如下图": 9188,
      "子里": 9189,
      "孤独": 9190,
      "它是": 9191,
      "对你": 9192,
      "对待": 9193,
      "导演": 9194,
      "小红": 9195,
      "就越": 9196,
      "平时": 9197,
      "平衡": 9198,
      "应用": 9199,
      "度的": 9200,
      "很难": 9201,
      "心脏": 9202,
      "快速": 9203,
      "思维": 9204,
      "情况": 9205,
      "愿意": 9206,
      "慢慢": 9207,
      "成熟": 9208,
      "成都": 9209,
      "我都": 9210,
      "我自己": 9211,
      "我不是": 9212,
      "拥有的": 9213,
      "接受": 9214,
      "收到": 9215,
      "教练": 9216,
      "教训": 9217,
      "文化": 9218,
      "方面": 9219,
      "旁边": 9220,
      "时的": 9221,
      "是不": 9222,
      "是最": 9223,
      "是因为": 9224,
      "朗诵": 9225,
      "本质": 9226,
      "本身": 9227,
      "某个": 9228,
      "样条": 9229,
      "正好": 9230,
      "死了": 9231,
      "段时间": 9232,
      "每个": 9233,
      "每一天": 9234,
      "洗澡": 9235,
      "测试": 9236,
      "温柔": 9237,
      "物理": 9238,
      "物质": 9239,
      "特点": 9240,
      "珍惜": 9241,
      "理论": 9242,
      "用来": 9243,
      "男人": 9244,
      "的信": 9245,
      "的故事": 9246,
      "的食物": 9247,
      "的翅膀": 9248,
      "瞬间": 9249,
      "社交": 9250,
      "科技": 9251,
      "称之": 9252,
      "笛卡尔": 9253,
      "等问题": 9254,
      "篇文章": 9255,
      "缺乏": 9256,
      "美好": 9257,
      "美的": 9258,
      "耦合": 9259,
      "膀胱": 9260,
      "自我": 9261,
      "色的": 9262,
      "行为": 9263,
      "要么": 9264,
      "资源": 9265,
      "走了": 9266,
      "足够": 9267,
      "达到": 9268,
      "过不去": 9269,
      "这一": 9270,
      "进入": 9271,
      "追求": 9272,
      "适用于": 9273,
      "那样": 9274,
      "都要": 9275,
      "都可以": 9276,
      "采样": 9277,
      "重点": 9278,
      "重的": 9279,
      "锻炼": 9280,
      "阳木": 9281,
      "陷入": 9282,
      "静默": 9283,
      "面临": 9284,
      "领袖": 9285,
      "频率": 9286,
      "thres": 9287,
      "error": 9288,
      "errand": 9289,
      "inch": 9290,
      "inct": 9291,
      "iners": 9292,
      "inward": 9293,
      "insol": 9294,
      "ante": 9295,
      "ancest": 9296,
      "thed": 9297,
      "thest": 9298,
      "orable": 9299,
      "encourage": 9300,
      "isine": 9301,
      "arise": 9302,
      "array": 9303,
      "attor": 9304,
      "online": 9305,
      "tops": 9306,
      "tower": 9307,
      "token": 9308,
      "stin": 9309,
      "mechan": 9310,
      "height": 9311,
      "retired": 9312,
      "sex": 9313,
      "seated": 9314,
      "select": 9315,
      "seized": 9316,
      "nois": 9317,
      "ital": 9318,
      "veil": 9319,
      "haven": 9320,
      "lewd": 9321,
      "beef": 9322,
      "beget": 9323,
      "begot": 9324,
      "beats": 9325,
      "becoming": 9326,
      "betide": 9327,
      "belief": 9328,
      "wipe": 9329,
      "roof": 9330,
      "rope": 9331,
      "robes": 9332,
      "eder": 9333,
      "ldren": 9334,
      "hidden": 9335,
      "hions": 9336,
      "owes": 9337,
      "lions": 9338,
      "livest": 9339,
      "depose": 9340,
      "device": 9341,
      "decre": 9342,
      "dels": 9343,
      "devour": 9344,
      "kets": 9345,
      "ented": 9346,
      "enters": 9347,
      "entrance": 9348,
      "ential": 9349,
      "ourself": 9350,
      "solit": 9351,
      "riel": 9352,
      "adver": 9353,
      "adul": 9354,
      "admir": 9355,
      "cop": 9356,
      "coz": 9357,
      "cozen": 9358,
      "allows": 9359,
      "allegi": 9360,
      "tific": 9361,
      "verty": 9362,
      "hoar": 9363,
      "doors": 9364,
      "essays": 9365,
      "uned": 9366,
      "unity": 9367,
      "unseen": 9368,
      "unkindness": 9369,
      "loathe": 9370,
      "map": 9371,
      "maker": 9372,
      "amends": 9373,
      "amorous": 9374,
      "factor": 9375,
      "favours": 9376,
      "supre": 9377,
      "butter": 9378,
      "ainted": 9379,
      "herald": 9380,
      "shade": 9381,
      "construct": 9382,
      "constable": 9383,
      "rue": 9384,
      "ruption": 9385,
      "moan": 9386,
      "shout": 9387,
      "pot": 9388,
      "pomp": 9389,
      "poem": 9390,
      "poverty": 9391,
      "takest": 9392,
      "upid": 9393,
      "quis": 9394,
      "quilt": 9395,
      "qualities": 9396,
      "quainted": 9397,
      "Thine": 9398,
      "Things": 9399,
      "boister": 9400,
      "capit": 9401,
      "outrage": 9402,
      "ORGE": 9403,
      "perio": 9404,
      "perfection": 9405,
      "perative": 9406,
      "sack": 9407,
      "dia": 9408,
      "plebe": 9409,
      "likewise": 9410,
      "agreed": 9411,
      "someday": 9412,
      "fiend": 9413,
      "apace": 9414,
      "tood": 9415,
      "abilities": 9416,
      "exce": 9417,
      "exact": 9418,
      "exceed": 9419,
      "ELY": 9420,
      "ELAND": 9421,
      "spread": 9422,
      "discontent": 9423,
      "discontented": 9424,
      "aces": 9425,
      "ache": 9426,
      "acquainted": 9427,
      "我们也": 9428,
      "我们从": 9429,
      "我们自己": 9430,
      "fulfill": 9431,
      "victor": 9432,
      "handsome": 9433,
      "Becomes": 9434,
      "otherwise": 9435,
      "baw": 9436,
      "marvel": 9437,
      "marvell": 9438,
      "descri": 9439,
      "ressed": 9440,
      "readiness": 9441,
      "isement": 9442,
      "swears": 9443,
      "Withdraw": 9444,
      "undo": 9445,
      "unders": 9446,
      "landed": 9447,
      "merc": 9448,
      "grate": 9449,
      "autom": 9450,
      "childhood": 9451,
      "brat": 9452,
      "aching": 9453,
      "duces": 9454,
      "offences": 9455,
      "worldly": 9456,
      "nights": 9457,
      "series": 9458,
      "Whereof": 9459,
      "warn": 9460,
      "flay": 9461,
      "scratch": 9462,
      "classi": 9463,
      "pace": 9464,
      "northern": 9465,
      "travell": 9466,
      "downright": 9467,
      "sweetly": 9468,
      "Answer": 9469,
      "courtier": 9470,
      "setbacks": 9471,
      "contri": 9472,
      "presume": 9473,
      "cheque": 9474,
      "steed": 9475,
      "couldst": 9476,
      "trim": 9477,
      "kinder": 9478,
      "happen": 9479,
      "happier": 9480,
      "highly": 9481,
      "BAGO": 9482,
      "homely": 9483,
      "stays": 9484,
      "tingu": 9485,
      "clean": 9486,
      "farm": 9487,
      "bidding": 9488,
      "helps": 9489,
      "purge": 9490,
      "purple": 9491,
      "buz": 9492,
      "compare": 9493,
      "compound": 9494,
      "你的伴侣": 9495,
      "dearer": 9496,
      "substitute": 9497,
      "STEP": 9498,
      "如果没有": 9499,
      "hopeful": 9500,
      "curtain": 9501,
      "就是你": 9502,
      "followed": 9503,
      "falls": 9504,
      "peaceful": 9505,
      "sensit": 9506,
      "certific": 9507,
      "confound": 9508,
      "brains": 9509,
      "cloak": 9510,
      "poses": 9511,
      "udd": 9512,
      "eldest": 9513,
      "replied": 9514,
      "champ": 9515,
      "turning": 9516,
      "GEORGE": 9517,
      "的人生": 9518,
      "monarch": 9519,
      "stops": 9520,
      "stolen": 9521,
      "interchange": 9522,
      "internal": 9523,
      "ventry": 9524,
      "carries": 9525,
      "running": 9526,
      "smiling": 9527,
      "Char": 9528,
      "Christ": 9529,
      "creant": 9530,
      "falcon": 9531,
      "balm": 9532,
      "matters": 9533,
      "wax": 9534,
      "waits": 9535,
      "strict": 9536,
      "gnant": 9537,
      "CALIB": 9538,
      "obtain": 9539,
      "sounds": 9540,
      "sounded": 9541,
      "window": 9542,
      "acted": 9543,
      "所以你": 9544,
      "revenges": 9545,
      "Conf": 9546,
      "Content": 9547,
      "breaks": 9548,
      "delicate": 9549,
      "villains": 9550,
      "teachers": 9551,
      "sadly": 9552,
      "yielding": 9553,
      "Canst": 9554,
      "lambs": 9555,
      "fields": 9556,
      "flying": 9557,
      "lately": 9558,
      "keys": 9559,
      "requires": 9560,
      "自己的身体": 9561,
      "....": 9562,
      "Comes": 9563,
      "Comfort": 9564,
      "game": 9565,
      "drinking": 9566,
      "destruction": 9567,
      "defy": 9568,
      "structured": 9569,
      "焊接工艺约束": 9570,
      "大家都": 9571,
      "需要的": 9572,
      "boldly": 9573,
      "boldness": 9574,
      "ashes": 9575,
      "grandam": 9576,
      "Methought": 9577,
      "bowl": 9578,
      "musicians": 9579,
      "rising": 9580,
      "skull": 9581,
      "wisely": 9582,
      "signal": 9583,
      "signify": 9584,
      "不要再": 9585,
      "beaten": 9586,
      "respon": 9587,
      "folks": 9588,
      "devilish": 9589,
      "entreaties": 9590,
      "droop": 9591,
      "youthful": 9592,
      "consumed": 9593,
      "resolute": 9594,
      "schools": 9595,
      "possessed": 9596,
      "beside": 9597,
      "custo": 9598,
      "certainly": 9599,
      "Captain": 9600,
      "frail": 9601,
      "framed": 9602,
      "hurl": 9603,
      "petty": 9604,
      "colleag": 9605,
      "similar": 9606,
      "重要的是": 9607,
      "storms": 9608,
      "temples": 9609,
      "flattering": 9610,
      "cuisine": 9611,
      "proph": 9612,
      "Welsh": 9613,
      "cheerly": 9614,
      "closely": 9615,
      "dame": 9616,
      "satisfaction": 9617,
      "approbation": 9618,
      "grieves": 9619,
      "grieved": 9620,
      "Lead": 9621,
      "Persu": 9622,
      "Perhaps": 9623,
      "liberal": 9624,
      "added": 9625,
      "cloudy": 9626,
      "Gaoler": 9627,
      "usurping": 9628,
      "introversion": 9629,
      "driving": 9630,
      "harvest": 9631,
      "lists": 9632,
      "关键词的": 9633,
      "Trust": 9634,
      "depends": 9635,
      "divor": 9636,
      "complexion": 9637,
      "cowardly": 9638,
      "kinsmen": 9639,
      "mount": 9640,
      "winters": 9641,
      "lamentable": 9642,
      "eleven": 9643,
      "filming": 9644,
      "fondly": 9645,
      "medic": 9646,
      "departure": 9647,
      "factors": 9648,
      "sentenced": 9649,
      "mutinous": 9650,
      "source": 9651,
      "环境中": 9652,
      "eternal": 9653,
      "glasses": 9654,
      "fleet": 9655,
      "complaint": 9656,
      "mildly": 9657,
      "mildness": 9658,
      "运动学MPC": 9659,
      "Blunt": 9660,
      "Verily": 9661,
      "健康的": 9662,
      "reckon": 9663,
      "transformation": 9664,
      "treasons": 9665,
      "greeting": 9666,
      "troubled": 9667,
      "Coventry": 9668,
      "evils": 9669,
      "fingers": 9670,
      "piercing": 9671,
      "多机器人系统": 9672,
      "老人院": 9673,
      "neighbours": 9674,
      "condemned": 9675,
      "spurs": 9676,
      "spurgh": 9677,
      "conquest": 9678,
      "constantly": 9679,
      "expected": 9680,
      "distance": 9681,
      "bastards": 9682,
      "1000": 9683,
      "bending": 9684,
      "designs": 9685,
      "EXTON": 9686,
      "revolt": 9687,
      "ministers": 9688,
      "Women": 9689,
      "neglect": 9690,
      "accusation": 9691,
      "prophecy": 9692,
      "aims": 9693,
      "flame": 9694,
      "testim": 9695,
      "外向的人": 9696,
      "末端位姿": 9697,
      "conclude": 9698,
      "heavier": 9699,
      "heavily": 9700,
      "branches": 9701,
      "technological": 9702,
      "标题里": 9703,
      "稳定性": 9704,
      "语文老师": 9705,
      "Antigon": 9706,
      "absolutely": 9707,
      "Shalt": 9708,
      "shoes": 9709,
      "写作文": 9710,
      "documentary": 9711,
      "improves": 9712,
      "improved": 9713,
      "Curtis": 9714,
      "wandering": 9715,
      "仿真结果": 9716,
      "robots": 9717,
      "lodged": 9718,
      "persuade": 9719,
      "communication": 9720,
      "preserve": 9721,
      "compassion": 9722,
      "integrity": 9723,
      "Else": 9724,
      "tutor": 9725,
      "weapons": 9726,
      "circumstance": 9727,
      "年轻的时候": 9728,
      "extroverted": 9729,
      "公众号SEO": 9730,
      "Appear": 9731,
      "Name": 9732,
      "decay": 9733,
      "admitted": 9734,
      "effectively": 9735,
      "strategy": 9736,
      "kidneys": 9737,
      "photo": 9738,
      "不断地": 9739,
      "nobleness": 9740,
      "provoked": 9741,
      "bridal": 9742,
      "profane": 9743,
      "occupation": 9744,
      "LISLE": 9745,
      "hoop": 9746,
      "人工势场法": 9747,
      "大多数": 9748,
      "incensed": 9749,
      "achieved": 9750,
      "challenges": 9751,
      "reconcile": 9752,
      "Chengdu": 9753,
      "Caliban": 9754,
      "Venice": 9755,
      "nesday": 9756,
      "pattern": 9757,
      "estimation": 9758,
      "recogn": 9759,
      "secrets": 9760,
      "feigned": 9761,
      "scandal": 9762,
      "双机械臂协同焊接": 9763,
      "fundamental": 9764,
      "Bagot": 9765,
      "Benvoli": 9766,
      "Burgund": 9767,
      "Children": 9768,
      "False": 9769,
      "MORELAND": 9770,
      "Minola": 9771,
      "Ravenspurgh": 9772,
      "Wednesday": 9773,
      "cooperative": 9774,
      "nuptial": 9775,
      "thieves": 9776,
      "recompense": 9777,
      "savage": 9778,
      "mentioned": 9779,
      "valuable": 9780,
      "bestow": 9781,
      "tyrannous": 9782,
      "Above": 9783,
      "Adieu": 9784,
      "CARLISLE": 9785,
      "Further": 9786,
      "FITZWAT": 9787,
      "Gardener": 9788,
      "Imagine": 9789,
      "Prepare": 9790,
      "SCROOP": 9791,
      "Vouchsafe": 9792,
      "WESTMORELAND": 9793,
      "传感器": 9794,
      "笛卡尔空间": 9795,
      "adulter": 9796,
      "allegiance": 9797,
      "boisterous": 9798,
      "period": 9799,
      "BAGOT": 9800,
      "STEPHEN": 9801,
      "CALIBAN": 9802,
      "Antigonus": 9803,
      "Benvolio": 9804,
      "Burgundy": 9805,
      "FITZWATER": 9806,
      ");": 9807,
      ")，": 9808,
      "1万": 9809,
      "95": 9810,
      "Apri": 9811,
      "AHAM": 9812,
      "Adam": 9813,
      "Ariel": 9814,
      "Br": 9815,
      "Bad": 9816,
      "Best": 9817,
      "Bound": 9818,
      "Bel": 9819,
      "Brit": 9820,
      "Bishop": 9821,
      "Budd": 9822,
      "Cy": 9823,
      "Che": 9824,
      "Cle": 9825,
      "Cut": 9826,
      "Cal": 9827,
      "Conce": 9828,
      "Cupid": 9829,
      "Del": 9830,
      "Er": 9831,
      "Ext": 9832,
      "Fill": 9833,
      "Found": 9834,
      "Foul": 9835,
      "Fran": 9836,
      "Fetch": 9837,
      "Gives": 9838,
      "Har": 9839,
      "Ja": 9840,
      "Jup": 9841,
      "Jap": 9842,
      "Kent": 9843,
      "Kill": 9844,
      "Kind": 9845,
      "Less": 9846,
      "Lend": 9847,
      "Last": 9848,
      "Lies": 9849,
      "Learn": 9850,
      "Ma": 9851,
      "Mom": 9852,
      "Murder": 9853,
      "Ned": 9854,
      "Nep": 9855,
      "Obe": 9856,
      "Pra": 9857,
      "Pem": 9858,
      "Patri": 9859,
      "Ren": 9860,
      "Ref": 9861,
      "RAHAM": 9862,
      "Sel": 9863,
      "Sic": 9864,
      "Scot": 9865,
      "Tre": 9866,
      "Tur": 9867,
      "Tun": 9868,
      "Troy": 9869,
      "Twixt": 9870,
      "Twice": 9871,
      "Talk": 9872,
      "Wh": 9873,
      "West": 9874,
      "Walter": 9875,
      "Wert": 9876,
      "Xun": 9877,
      "Zounds": 9878,
      "awe": 9879,
      "ape": 9880,
      "afore": 9881,
      "aves": 9882,
      "aled": 9883,
      "ables": 9884,
      "bing": 9885,
      "bout": 9886,
      "bune": 9887,
      "bows": 9888,
      "bench": 9889,
      "bounty": 9890,
      "crest": 9891,
      "ctic": 9892,
      "cats": 9893,
      "cities": 9894,
      "dine": 9895,
      "ders": 9896,
      "dined": 9897,
      "dancing": 9898,
      "ell": 9899,
      "eves": 9900,
      "emer": 9901,
      "fli": 9902,
      "fid": 9903,
      "fume": 9904,
      "gli": 9905,
      "gart": 9906,
      "gory": 9907,
      "gative": 9908,
      "hong": 9909,
      "hound": 9910,
      "hounds": 9911,
      "ias": 9912,
      "ivant": 9913,
      "jump": 9914,
      "jade": 9915,
      "kine": 9916,
      "kites": 9917,
      "lter": 9918,
      "lous": 9919,
      "lute": 9920,
      "loose": 9921,
      "mouse": 9922,
      "nin": 9923,
      "nation": 9924,
      "nigh": 9925,
      "nical": 9926,
      "nourish": 9927,
      "nimble": 9928,
      "oil": 9929,
      "omen": 9930,
      "pant": 9931,
      "pence": 9932,
      "pump": 9933,
      "rat": 9934,
      "rhe": 9935,
      "rish": 9936,
      "rouse": 9937,
      "sow": 9938,
      "squ": 9939,
      "ssi": 9940,
      "ssed": 9941,
      "slight": 9942,
      "squar": 9943,
      "tou": 9944,
      "tin": 9945,
      "tur": 9946,
      "trow": 9947,
      "twould": 9948,
      "tany": 9949,
      "torn": 9950,
      "tents": 9951,
      "umer": 9952,
      "vation": 9953,
      "vance": 9954,
      "ws": 9955,
      "wre": 9956,
      "wart": 9957,
      "wers": 9958,
      "yare": 9959,
      "zel": 9960,
      "zhou": 9961,
      "一遍": 9962,
      "一本书": 9963,
      "不了": 9964,
      "不如": 9965,
      "不适": 9966,
      "与你": 9967,
      "专业": 9968,
      "主要": 9969,
      "之一": 9970,
      "也很": 9971,
      "也就是": 9972,
      "了人": 9973,
      "事实": 9974,
      "五岁": 9975,
      "交流": 9976,
      "仍然": 9977,
      "从小": 9978,
      "付费": 9979,
      "代表": 9980,
      "优美": 9981,
      "似乎": 9982,
      "你再": 9983,
      "你去": 9984,
      "你爱": 9985,
      "你说": 9986,
      "你就是": 9987,
      "你知道": 9988,
      "儿子": 9989,
      "光芒": 9990,
      "全局": 9991,
      "全班": 9992,
      "公司": 9993,
      "六腑": 9994,
      "关心": 9995,
      "刚好": 9996,
      "创新": 9997,
      "到你": 9998,
      "前提": 9999,
      "动的": 10000,
      "勇敢": 10001,
      "厉害": 10002,
      "原来": 10003,
      "反应": 10004,
      "变形": 10005,
      "变成": 10006,
      "变换": 10007,
      "另外": 10008,
      "可比": 10009,
      "可靠": 10010,
      "台上": 10011,
      "各自": 10012,
      "周围": 10013,
      "命运": 10014,
      "和阴": 10015,
      "回答": 10016,
      "因此": 10017,
      "在水": 10018,
      "在这个": 10019,
      "在你的": 10020,
      "在这个世界": 10021,
      "在哪里": 10022,
      "地说": 10023,
      "坚强": 10024,
      "基本": 10025,
      "她就": 10026,
      "妻子": 10027,
      "媒体": 10028,
      "学的": 10029,
      "宇宙": 10030,
      "安静": 10031,
      "实际": 10032,
      "家又": 10033,
      "家庭": 10034,
      "对光的": 10035,
      "寻找": 10036,
      "小吃": 10037,
      "小男孩": 10038,
      "少几": 10039,
      "尤其": 10040,
      "就算": 10041,
      "带有": 10042,
      "年级": 10043,
      "年龄": 10044,
      "年的时间": 10045,
      "并没有": 10046,
      "并通过": 10047,
      "幼稚": 10048,
      "床上": 10049,
      "引入": 10050,
      "弟弟": 10051,
      "很快": 10052,
      "得多": 10053,
      "得更": 10054,
      "得起": 10055,
      "心智": 10056,
      "心火": 10057,
      "心灵": 10058,
      "必要": 10059,
      "思想": 10060,
      "悲伤": 10061,
      "情绪": 10062,
      "想想": 10063,
[...]
